unsigned char g_model[] = {
  0x1c, 0x00, 0x00, 0x00, 0x54, 0x46, 0x4c, 0x33, 0x14, 0x00, 0x20, 0x00,
  0x1c, 0x00, 0x18, 0x00, 0x14, 0x00, 0x10, 0x00, 0x0c, 0x00, 0x00, 0x00,
  0x08, 0x00, 0x04, 0x00, 0x14, 0x00, 0x00, 0x00, 0x1c, 0x00, 0x00, 0x00,
  0x1c, 0x00, 0x00, 0x00, 0x4c, 0x00, 0x00, 0x00, 0x88, 0x0b, 0x00, 0x00,
  0x98, 0x0b, 0x00, 0x00, 0x38, 0x1b, 0x00, 0x00, 0x03, 0x00, 0x00, 0x00,
  0x00, 0x00, 0x00, 0x00, 0x01, 0x00, 0x00, 0x00, 0x0c, 0x00, 0x00, 0x00,
  0x08, 0x00, 0x0c, 0x00, 0x08, 0x00, 0x04, 0x00, 0x08, 0x00, 0x00, 0x00,
  0x13, 0x00, 0x00, 0x00, 0x04, 0x00, 0x00, 0x00, 0x13, 0x00, 0x00, 0x00,
  0x6d, 0x69, 0x6e, 0x5f, 0x72, 0x75, 0x6e, 0x74, 0x69, 0x6d, 0x65, 0x5f,
  0x76, 0x65, 0x72, 0x73, 0x69, 0x6f, 0x6e, 0x00, 0x14, 0x00, 0x00, 0x00,
  0x38, 0x0b, 0x00, 0x00, 0x30, 0x0b, 0x00, 0x00, 0x18, 0x0b, 0x00, 0x00,
  0x48, 0x0a, 0x00, 0x00, 0xf8, 0x09, 0x00, 0x00, 0xe8, 0x05, 0x00, 0x00,
  0x98, 0x05, 0x00, 0x00, 0x88, 0x01, 0x00, 0x00, 0x38, 0x01, 0x00, 0x00,
  0x98, 0x00, 0x00, 0x00, 0x64, 0x00, 0x00, 0x00, 0x5c, 0x00, 0x00, 0x00,
  0x54, 0x00, 0x00, 0x00, 0x4c, 0x00, 0x00, 0x00, 0x44, 0x00, 0x00, 0x00,
  0x3c, 0x00, 0x00, 0x00, 0x34, 0x00, 0x00, 0x00, 0x2c, 0x00, 0x00, 0x00,
  0x24, 0x00, 0x00, 0x00, 0x04, 0x00, 0x00, 0x00, 0x86, 0xf4, 0xff, 0xff,
  0x04, 0x00, 0x00, 0x00, 0x10, 0x00, 0x00, 0x00, 0x31, 0x2e, 0x31, 0x34,
  0x2e, 0x30, 0x00, 0x00, 0x00, 0x00, 0x00, 0x00, 0x00, 0x00, 0x00, 0x00,
  0x48, 0xe6, 0xff, 0xff, 0x4c, 0xe6, 0xff, 0xff, 0x50, 0xe6, 0xff, 0xff,
  0x54, 0xe6, 0xff, 0xff, 0x58, 0xe6, 0xff, 0xff, 0x5c, 0xe6, 0xff, 0xff,
  0x60, 0xe6, 0xff, 0xff, 0x64, 0xe6, 0xff, 0xff, 0xc2, 0xf4, 0xff, 0xff,
  0x04, 0x00, 0x00, 0x00, 0x24, 0x00, 0x00, 0x00, 0x6a, 0x00, 0x00, 0x00,
  0x86, 0x00, 0x00, 0x00, 0x19, 0x00, 0x00, 0x00, 0xe3, 0xfe, 0xff, 0xff,
  0xa1, 0xff, 0xff, 0xff, 0x48, 0xfe, 0xff, 0xff, 0xe2, 0xfe, 0xff, 0xff,
  0xa1, 0x00, 0x00, 0x00, 0xda, 0x00, 0x00, 0x00, 0xf2, 0xf4, 0xff, 0xff,
  0x04, 0x00, 0x00, 0x00, 0x90, 0x00, 0x00, 0x00, 0x90, 0xaa, 0x07, 0xd5,
  0x39, 0xeb, 0x93, 0xc8, 0xc9, 0x35, 0xc5, 0x31, 0x97, 0x3b, 0xb2, 0xf2,
  0xf2, 0x2e, 0xff, 0xf1, 0x25, 0x11, 0xa7, 0xd2, 0x35, 0xc4, 0xd5, 0xd2,
  0x39, 0xdf, 0xf5, 0x2a, 0x17, 0x23, 0x03, 0x1a, 0x1e, 0x40, 0xe0, 0x1b,
  0xed, 0xf4, 0xe2, 0xe5, 0x08, 0x1d, 0xf3, 0x26, 0x1b, 0xdd, 0x14, 0xf3,
  0x13, 0xdf, 0xfc, 0x2c, 0x3d, 0x1c, 0xc7, 0x24, 0xc4, 0xf6, 0x22, 0xc4,
  0xcf, 0xab, 0xe0, 0xfa, 0xd7, 0x0a, 0x0b, 0xd9, 0xf0, 0xd5, 0x2d, 0x02,
  0x41, 0xb9, 0x10, 0x81, 0x2f, 0x20, 0xdc, 0x4c, 0xd3, 0xfe, 0xd6, 0xde,
  0xfc, 0x28, 0x00, 0xcd, 0x3f, 0xbb, 0xef, 0xc1, 0x29, 0x2c, 0x34, 0xe0,
  0xb2, 0x46, 0xfd, 0xf8, 0x34, 0xd6, 0x23, 0x3d, 0x39, 0xf6, 0xf1, 0xf3,
  0xe3, 0xf2, 0xeb, 0x1f, 0x1a, 0xf4, 0xd3, 0x3f, 0xf0, 0x23, 0xd1, 0x02,
  0x16, 0xbd, 0xf2, 0x2e, 0x27, 0xd4, 0xc0, 0xf9, 0xa8, 0x01, 0xbc, 0x28,
  0xef, 0x2b, 0x09, 0xc1, 0x34, 0x10, 0xc2, 0x02, 0x8e, 0xf5, 0xff, 0xff,
  0x04, 0x00, 0x00, 0x00, 0x40, 0x00, 0x00, 0x00, 0x7c, 0xff, 0xff, 0xff,
  0xb4, 0xff, 0xff, 0xff, 0xd5, 0xff, 0xff, 0xff, 0x45, 0xff, 0xff, 0xff,
  0xce, 0x00, 0x00, 0x00, 0x93, 0xff, 0xff, 0xff, 0x9b, 0xff, 0xff, 0xff,
  0x66, 0x00, 0x00, 0x00, 0x6d, 0xff, 0xff, 0xff, 0x39, 0x00, 0x00, 0x00,
  0x1e, 0xff, 0xff, 0xff, 0xcc, 0xff, 0xff, 0xff, 0xa0, 0xff, 0xff, 0xff,
  0x1c, 0x00, 0x00, 0x00, 0xa3, 0xff, 0xff, 0xff, 0xc8, 0x00, 0x00, 0x00,
  0xda, 0xf5, 0xff, 0xff, 0x04, 0x00, 0x00, 0x00, 0x00, 0x04, 0x00, 0x00,
  0xce, 0x10, 0x0b, 0x21, 0x0c, 0x2e, 0xf0, 0x09, 0xe8, 0x0e, 0xe9, 0xfc,
  0xf6, 0x41, 0xed, 0x48, 0x0d, 0x32, 0x14, 0xf7, 0xfd, 0xeb, 0x29, 0xe7,
  0x48, 0x12, 0x03, 0xd7, 0xf6, 0xf1, 0x0a, 0x4f, 0xd6, 0xef, 0xdc, 0x16,
  0xe7, 0x2f, 0xfb, 0x1f, 0xf3, 0x20, 0xe4, 0xf9, 0x0a, 0x5e, 0xfc, 0x32,
  0xde, 0xf1, 0x10, 0xf0, 0x10, 0xe9, 0x26, 0xfc, 0x2b, 0x11, 0xf4, 0xcc,
  0xf3, 0xf3, 0xfe, 0x2a, 0x1c, 0xc1, 0xf8, 0x0a, 0x0b, 0xff, 0x4a, 0x48,
  0x07, 0x32, 0x26, 0x03, 0xd0, 0x1f, 0x06, 0xd7, 0xeb, 0x05, 0xe0, 0xab,
  0xfa, 0xf4, 0x04, 0xf8, 0x08, 0x09, 0x01, 0x07, 0x04, 0x0f, 0x11, 0xd8,
  0xfb, 0xae, 0x19, 0x12, 0xe1, 0xfb, 0x24, 0x10, 0xfc, 0x25, 0x32, 0xff,
  0xe7, 0x60, 0x08, 0xb8, 0xe9, 0xfb, 0xf0, 0xc5, 0x07, 0x06, 0x1b, 0x09,
  0x05, 0x15, 0x2d, 0xef, 0x17, 0x14, 0x0d, 0xfb, 0x15, 0xc8, 0x22, 0x0a,
  0x11, 0x19, 0xfe, 0xf7, 0xcc, 0xea, 0xe9, 0x07, 0x11, 0xe8, 0xe0, 0xf5,
  0x1a, 0xc2, 0xd7, 0xe7, 0x15, 0xe4, 0x0f, 0xef, 0xd3, 0xc6, 0xf3, 0xe8,
  0xcc, 0x06, 0x0c, 0x03, 0xd8, 0xca, 0x0d, 0xf4, 0xd1, 0xce, 0x11, 0x3b,
  0xef, 0x09, 0xe8, 0x1a, 0x37, 0x16, 0xe9, 0x10, 0xe0, 0xfd, 0xd7, 0xfe,
  0xf7, 0xdd, 0xf2, 0x20, 0xe7, 0x1e, 0xdc, 0xfe, 0xd8, 0xf7, 0x19, 0x05,
  0xe5, 0xca, 0xf5, 0x08, 0xde, 0x19, 0xb8, 0xd7, 0xf0, 0x1e, 0xd6, 0xe0,
  0x03, 0xc4, 0xc7, 0xed, 0xe4, 0x0c, 0x09, 0xe4, 0x16, 0xfd, 0xf5, 0xee,
  0xdc, 0x14, 0xfe, 0xe2, 0xfc, 0xc7, 0x16, 0x17, 0xdd, 0xfb, 0x09, 0x19,
  0x27, 0x1f, 0x03, 0xe4, 0xe4, 0x37, 0xae, 0x28, 0xf5, 0xe1, 0xc9, 0xf8,
  0x29, 0x05, 0x20, 0xf5, 0xc0, 0x0e, 0x06, 0xe4, 0xea, 0x09, 0x09, 0x08,
  0xd7, 0x03, 0x1e, 0x20, 0xde, 0xff, 0x21, 0xce, 0xd5, 0xe1, 0x05, 0x26,
  0x0f, 0x00, 0x2e, 0xf2, 0xf4, 0xfe, 0x35, 0xd3, 0x7c, 0x24, 0x0d, 0x1e,
  0x03, 0x03, 0xd8, 0xe1, 0x06, 0xf2, 0xf8, 0x18, 0x04, 0x27, 0x03, 0x05,
  0x2e, 0xfb, 0x1b, 0xf3, 0xfc, 0xd7, 0xf4, 0x1f, 0x08, 0xf6, 0x36, 0x07,
  0xe3, 0x05, 0x1f, 0xe2, 0x7f, 0x31, 0x2b, 0x10, 0x05, 0xf9, 0xea, 0x01,
  0xf4, 0xe2, 0xdb, 0x07, 0x00, 0x18, 0xd4, 0xfb, 0xda, 0xba, 0x18, 0xe2,
  0x26, 0x14, 0x16, 0x24, 0xf6, 0xd4, 0x12, 0x0b, 0x15, 0x71, 0x02, 0xf0,
  0xf2, 0xfd, 0x27, 0xe2, 0xfd, 0xfc, 0xfd, 0x0e, 0x30, 0x07, 0x19, 0xed,
  0xfc, 0xe4, 0xd9, 0x26, 0x1e, 0xbb, 0x20, 0xcb, 0x18, 0x0c, 0x20, 0x32,
  0xae, 0xe2, 0x02, 0x29, 0xcf, 0x76, 0x13, 0x02, 0xb3, 0xe3, 0xd4, 0xcf,
  0xe3, 0xde, 0x25, 0x1c, 0x20, 0x05, 0xec, 0xfe, 0x0c, 0xf6, 0x0e, 0xf2,
  0x27, 0xfe, 0x15, 0x01, 0x01, 0x0a, 0x0a, 0x24, 0xf9, 0xfd, 0x0a, 0xfa,
  0xfd, 0x1d, 0xfa, 0xf1, 0x01, 0x36, 0xf1, 0x2b, 0x07, 0x00, 0xfd, 0x69,
  0x2a, 0x1a, 0x07, 0xf2, 0xf6, 0xf3, 0xf2, 0xda, 0xfa, 0x0f, 0xfa, 0xd8,
  0x10, 0xf3, 0xf8, 0x09, 0xe6, 0xe0, 0x0e, 0x1d, 0x39, 0x4d, 0xfd, 0xf6,
  0xcb, 0x47, 0x06, 0x13, 0xdb, 0xf5, 0x43, 0x3a, 0x08, 0xfc, 0x1a, 0x53,
  0x2c, 0xea, 0xf2, 0x23, 0x0e, 0x2e, 0x1c, 0xfa, 0x0b, 0xf1, 0xfe, 0x26,
  0xf4, 0xe4, 0xf7, 0xd5, 0x10, 0x14, 0xf6, 0x25, 0xb6, 0x1e, 0x19, 0x42,
  0xd9, 0x16, 0x15, 0xca, 0xf1, 0xbe, 0xe3, 0xde, 0xfa, 0xf2, 0x02, 0xf6,
  0xf8, 0x23, 0x1b, 0xfb, 0xe2, 0xee, 0xf1, 0x2d, 0x02, 0xea, 0x0a, 0x1f,
  0xf2, 0x03, 0x16, 0x24, 0xaf, 0x13, 0x02, 0x53, 0xfe, 0x00, 0xf1, 0xa1,
  0x1e, 0xad, 0xdd, 0x07, 0xde, 0xf6, 0x0c, 0x2c, 0x1b, 0xfc, 0x14, 0x05,
  0x27, 0xd4, 0x02, 0x0c, 0xde, 0xdc, 0xfd, 0x14, 0x24, 0x0e, 0xee, 0xef,
  0xcd, 0x11, 0xe1, 0x13, 0xf1, 0xd2, 0x0e, 0xe8, 0x0e, 0x1f, 0xfd, 0xcf,
  0xdf, 0x08, 0xf4, 0xda, 0x0a, 0x1a, 0x26, 0x12, 0x0c, 0xd7, 0x06, 0xd9,
  0xeb, 0x05, 0xbf, 0xea, 0x30, 0xcc, 0xcd, 0x03, 0x21, 0x47, 0x04, 0x2f,
  0xbf, 0xbf, 0xe9, 0x03, 0x15, 0xf0, 0xc7, 0x04, 0xfd, 0xfe, 0x03, 0x2b,
  0x0e, 0x1a, 0xe6, 0x13, 0xfa, 0x13, 0xbd, 0xbb, 0xf8, 0x10, 0xd1, 0xdc,
  0xcd, 0xe9, 0x1b, 0x33, 0x18, 0xf3, 0xe6, 0x01, 0xe8, 0x01, 0xfc, 0xe5,
  0xe1, 0xf5, 0xf4, 0x03, 0x19, 0x08, 0x19, 0xfc, 0x0a, 0x1a, 0xd6, 0x0d,
  0x23, 0x1f, 0xc8, 0xef, 0x0c, 0x11, 0xb3, 0x1d, 0x11, 0xdf, 0x05, 0x4f,
  0x45, 0x34, 0x0e, 0x2a, 0x14, 0xff, 0x05, 0xda, 0x0d, 0xe1, 0xec, 0xee,
  0x0a, 0xfe, 0x37, 0xf3, 0xef, 0x01, 0xfc, 0x1a, 0xf6, 0xba, 0xdb, 0x03,
  0x06, 0xca, 0x00, 0xea, 0x15, 0x43, 0x0c, 0x13, 0x1f, 0xe3, 0x09, 0xf6,
  0xf0, 0xf0, 0x13, 0x27, 0xf3, 0x13, 0x17, 0xeb, 0xf9, 0xcf, 0xe2, 0xec,
  0xba, 0x14, 0x1c, 0x08, 0x03, 0x15, 0x08, 0xf0, 0xed, 0xe5, 0xf3, 0xf4,
  0x1b, 0xda, 0xc2, 0x45, 0xe1, 0xd4, 0xf5, 0xfb, 0xf4, 0xf0, 0xf7, 0x51,
  0x06, 0x08, 0xd6, 0x4b, 0x25, 0x0b, 0x08, 0xd0, 0xce, 0xf7, 0x20, 0xe9,
  0xdc, 0xdb, 0xd9, 0xde, 0x19, 0xfc, 0xfb, 0x0d, 0x24, 0xe0, 0x13, 0xd8,
  0x35, 0xf1, 0xf2, 0xd6, 0xee, 0xcb, 0x0a, 0xd6, 0x0e, 0xd1, 0x1c, 0xf4,
  0x19, 0x16, 0x38, 0xdd, 0x30, 0xf8, 0x26, 0xe4, 0xef, 0x0f, 0xe3, 0xef,
  0xe3, 0xdd, 0xe1, 0xf5, 0x1c, 0xe5, 0xea, 0x07, 0x14, 0xed, 0xd7, 0xf7,
  0xe0, 0xc4, 0x13, 0xef, 0xf8, 0xd1, 0x04, 0x01, 0xee, 0x30, 0xee, 0x16,
  0xf1, 0x03, 0xef, 0x16, 0xff, 0x4a, 0x32, 0xdf, 0x07, 0x74, 0x14, 0x06,
  0xe4, 0xc8, 0xee, 0x08, 0xe0, 0xd0, 0x15, 0xcd, 0x0e, 0x07, 0x1a, 0x4e,
  0xed, 0x3f, 0x05, 0x32, 0x0b, 0x0a, 0xfb, 0xfb, 0xef, 0xf8, 0xcf, 0x3c,
  0x31, 0x38, 0x24, 0xc9, 0x29, 0x57, 0xec, 0x21, 0xab, 0xc8, 0xd8, 0x06,
  0xed, 0xc7, 0xe1, 0xf0, 0x01, 0xf0, 0x05, 0x30, 0xd3, 0x40, 0x2e, 0x29,
  0x1c, 0x1c, 0x35, 0xcc, 0xe1, 0xfd, 0x27, 0x1a, 0x26, 0x09, 0xc8, 0xff,
  0xe7, 0xc2, 0xf8, 0xde, 0xc1, 0x4c, 0x29, 0x2a, 0x49, 0xf2, 0xda, 0xe0,
  0x0a, 0xe6, 0xee, 0xf3, 0x49, 0xfe, 0x00, 0xe6, 0x0d, 0x0e, 0x11, 0x22,
  0xf9, 0x0a, 0x2b, 0xfd, 0xfd, 0xe8, 0xeb, 0x1d, 0xf2, 0x9f, 0x07, 0xee,
  0x01, 0x2e, 0x18, 0x24, 0x2b, 0xcd, 0x2f, 0xda, 0xfd, 0xd4, 0xf1, 0xfa,
  0x32, 0x0e, 0xde, 0xe5, 0x15, 0x0c, 0xf9, 0x1e, 0x1c, 0x03, 0xe7, 0xde,
  0x26, 0xd1, 0x18, 0x1a, 0xf8, 0xe4, 0x16, 0x20, 0x09, 0xf2, 0x0b, 0x00,
  0xf8, 0x31, 0x28, 0x1a, 0x1b, 0xd4, 0xef, 0xfd, 0x05, 0xd4, 0xff, 0x24,
  0xd4, 0x19, 0xfa, 0xcf, 0xde, 0xdd, 0x08, 0x03, 0x10, 0x09, 0xcb, 0x1e,
  0x14, 0x18, 0xd0, 0x19, 0x27, 0xc7, 0xff, 0xee, 0xe7, 0x54, 0x24, 0x2a,
  0xc3, 0xeb, 0x23, 0xc9, 0x23, 0xf1, 0xd6, 0xe3, 0xe8, 0x10, 0x00, 0x34,
  0x15, 0xef, 0xf5, 0xeb, 0xfa, 0xd9, 0x1d, 0x20, 0x1a, 0xed, 0x33, 0x0d,
  0xd4, 0xf9, 0x29, 0xb6, 0x9e, 0xef, 0xea, 0x38, 0x28, 0x08, 0xdd, 0xe7,
  0x04, 0xf3, 0x10, 0xe6, 0xef, 0x05, 0xc6, 0xff, 0x31, 0xf0, 0x2a, 0xfa,
  0xde, 0xdc, 0x1a, 0x35, 0x0b, 0xd5, 0x4d, 0xe8, 0xca, 0xef, 0x42, 0xbb,
  0x8a, 0xa9, 0x1b, 0x20, 0x58, 0x13, 0xe9, 0xf0, 0xf0, 0xe8, 0xe5, 0x06,
  0x08, 0xfd, 0xc6, 0xdf, 0xe6, 0xf9, 0xff, 0xff, 0x04, 0x00, 0x00, 0x00,
  0x40, 0x00, 0x00, 0x00, 0xd8, 0x00, 0x00, 0x00, 0xd9, 0xff, 0xff, 0xff,
  0xda, 0xff, 0xff, 0xff, 0x8d, 0xff, 0xff, 0xff, 0x1b, 0x00, 0x00, 0x00,
  0x7c, 0xff, 0xff, 0xff, 0x22, 0xff, 0xff, 0xff, 0x85, 0xff, 0xff, 0xff,
  0x8c, 0xff, 0xff, 0xff, 0x7d, 0xff, 0xff, 0xff, 0x2c, 0x00, 0x00, 0x00,
  0x93, 0xff, 0xff, 0xff, 0x33, 0x00, 0x00, 0x00, 0x03, 0x00, 0x00, 0x00,
  0xd0, 0x00, 0x00, 0x00, 0xdf, 0xff, 0xff, 0xff, 0x32, 0xfa, 0xff, 0xff,
  0x04, 0x00, 0x00, 0x00, 0x00, 0x04, 0x00, 0x00, 0xdb, 0xb0, 0xd9, 0xfc,
  0x03, 0xf9, 0x12, 0xba, 0x1e, 0xef, 0x13, 0xe0, 0xce, 0x0b, 0x83, 0xcc,
  0xd2, 0xb4, 0xe4, 0xfe, 0x13, 0xf1, 0x0d, 0xc8, 0x1a, 0x03, 0x07, 0xee,
  0xfe, 0xf7, 0xb6, 0xea, 0x08, 0xb7, 0xd6, 0xf2, 0xfe, 0x03, 0xb8, 0xd1,
  0xce, 0x06, 0x0e, 0xd8, 0xd7, 0xf8, 0x99, 0xcc, 0x19, 0xb2, 0xca, 0x03,
  0xcc, 0x00, 0x94, 0xdf, 0xce, 0xd1, 0x1b, 0xf9, 0xe2, 0xf4, 0x81, 0xcc,
  0x0e, 0xed, 0x0f, 0x0b, 0x8f, 0xeb, 0x15, 0x1a, 0x35, 0xfc, 0xe6, 0xce,
  0xe8, 0xff, 0xc9, 0xe5, 0x09, 0xf2, 0x04, 0x19, 0x81, 0x02, 0x09, 0x22,
  0x14, 0xec, 0xe1, 0x2a, 0x01, 0x02, 0x0f, 0xc6, 0x1a, 0xe5, 0x42, 0xfe,
  0xd0, 0x01, 0x0b, 0x1b, 0x28, 0x07, 0xfe, 0x11, 0xd4, 0xd4, 0xce, 0xbf,
  0xdd, 0x18, 0x13, 0xe8, 0x23, 0xe7, 0xf6, 0x16, 0xc3, 0x1d, 0xe5, 0xff,
  0xe1, 0xfc, 0xa7, 0xcd, 0xfc, 0xde, 0xcd, 0x07, 0x2f, 0xc8, 0x27, 0x12,
  0x16, 0x10, 0xcb, 0xf0, 0x08, 0x2b, 0xca, 0xd2, 0x2a, 0xd7, 0xe4, 0xfc,
  0xff, 0xdd, 0xcb, 0xe6, 0xf4, 0xdc, 0x20, 0xf3, 0xdc, 0x1a, 0xcb, 0x00,
  0x04, 0xd6, 0x07, 0x16, 0x23, 0xfc, 0xe1, 0xdb, 0x81, 0xcb, 0x19, 0xfe,
  0xea, 0x19, 0xde, 0xe8, 0xea, 0x02, 0xf7, 0x15, 0x0c, 0xe4, 0x03, 0x00,
  0xb7, 0xfa, 0xd2, 0xe3, 0x32, 0x0e, 0xf5, 0xf5, 0x07, 0x04, 0x30, 0x00,
  0x03, 0xde, 0xfc, 0xf6, 0xf3, 0xfb, 0x02, 0x0c, 0x1c, 0x02, 0xe2, 0x05,
  0x19, 0xfc, 0xe6, 0x01, 0xbd, 0x05, 0xd9, 0x12, 0x06, 0xf9, 0xfd, 0xc8,
  0xf4, 0x03, 0xe9, 0xf9, 0xe7, 0x60, 0x34, 0xe5, 0xf9, 0x01, 0x0e, 0x1a,
  0x14, 0x43, 0xfd, 0xdb, 0xd9, 0xe8, 0xf8, 0xeb, 0x17, 0xcd, 0x24, 0x08,
  0x30, 0xf4, 0xef, 0xc4, 0x81, 0xf2, 0xfb, 0x2b, 0x11, 0xe5, 0xe5, 0xf2,
  0x06, 0x20, 0x05, 0x0d, 0xb4, 0x31, 0x9e, 0xcb, 0x81, 0x39, 0x04, 0x9d,
  0x30, 0xc0, 0xee, 0x04, 0xa7, 0x0c, 0x1f, 0x0b, 0xb9, 0x0d, 0xda, 0xcb,
  0xbb, 0xec, 0x1e, 0xcb, 0x1b, 0x16, 0x27, 0x2a, 0xe5, 0xa6, 0x05, 0x14,
  0x01, 0xda, 0x0a, 0xc2, 0x19, 0xb6, 0xaa, 0x17, 0xec, 0xe8, 0xdf, 0xcd,
  0x26, 0xe6, 0x0d, 0xd2, 0xe2, 0xd5, 0x1b, 0xd3, 0xb6, 0x1f, 0xd0, 0xe6,
  0x2f, 0xe4, 0xea, 0xda, 0x3b, 0x1f, 0xfa, 0xe7, 0x5f, 0x2b, 0xf0, 0x1a,
  0xf0, 0x5b, 0xd8, 0x28, 0x07, 0xd3, 0x13, 0xff, 0xc9, 0x1e, 0x39, 0xef,
  0x4b, 0x13, 0xdb, 0xc7, 0x94, 0xf6, 0xec, 0x06, 0x05, 0xc6, 0xc0, 0x18,
  0x16, 0xe6, 0xde, 0xf0, 0xc8, 0xf5, 0xe0, 0xf5, 0x17, 0x0d, 0xf8, 0x27,
  0xee, 0x18, 0xf9, 0xf3, 0x09, 0x7f, 0xd9, 0xfa, 0x9c, 0x1b, 0xf0, 0x2b,
  0x35, 0x3e, 0x0e, 0xd7, 0xf2, 0x0e, 0x2d, 0x26, 0xad, 0xdb, 0x20, 0xc8,
  0x46, 0xab, 0xf6, 0x17, 0xc8, 0x13, 0xeb, 0x9d, 0xf6, 0x4c, 0xdf, 0x2d,
  0x18, 0xfc, 0x34, 0xdc, 0xc3, 0xaf, 0xfc, 0xe3, 0x07, 0xee, 0xed, 0x88,
  0x51, 0x45, 0xcb, 0x50, 0xc2, 0x31, 0x82, 0xee, 0xda, 0xd0, 0x26, 0x81,
  0xee, 0x17, 0xfc, 0x13, 0xb0, 0xc3, 0xae, 0x5e, 0xe3, 0x1c, 0xac, 0x49,
  0x28, 0x06, 0x16, 0xb8, 0xd0, 0xf2, 0x33, 0x42, 0x97, 0xbf, 0x9b, 0x0a,
  0xc9, 0xf0, 0xa1, 0x10, 0x39, 0x19, 0x0a, 0x01, 0x89, 0xe2, 0x0c, 0x24,
  0xd8, 0xe7, 0x08, 0xe3, 0x1f, 0xda, 0x81, 0xf3, 0x28, 0x00, 0xdb, 0x29,
  0xa1, 0xd5, 0x0d, 0x25, 0xc1, 0xf3, 0x37, 0xf2, 0xf2, 0xdb, 0xf1, 0xc1,
  0x26, 0x03, 0xd1, 0x1e, 0xab, 0xd4, 0xf9, 0x52, 0xd4, 0x09, 0xef, 0x07,
  0xd1, 0x0c, 0x10, 0xd0, 0x6a, 0xcd, 0xf5, 0xf9, 0x0b, 0x08, 0xf7, 0x34,
  0xfc, 0x1b, 0x32, 0xf3, 0x15, 0x08, 0x29, 0x06, 0xea, 0x0a, 0xff, 0x13,
  0x1f, 0xf6, 0xf8, 0xfa, 0x08, 0x06, 0xfb, 0x08, 0xf8, 0xe9, 0x14, 0x15,
  0x81, 0xfe, 0x10, 0x50, 0x13, 0xdd, 0xf3, 0x04, 0x0f, 0xd1, 0x01, 0xfc,
  0x14, 0xdf, 0xdd, 0xda, 0xf3, 0xec, 0x14, 0xe9, 0xcc, 0xef, 0x16, 0xf8,
  0xd1, 0xff, 0x1d, 0xc9, 0x2d, 0xcc, 0x22, 0xff, 0xd0, 0x18, 0xb4, 0x13,
  0x1a, 0xd6, 0xf8, 0x09, 0x07, 0xeb, 0xfb, 0x0a, 0x2e, 0xeb, 0xe6, 0x0f,
  0xd6, 0x0f, 0xee, 0xdb, 0x34, 0x27, 0xf1, 0x18, 0x01, 0xfa, 0xf0, 0x1e,
  0x54, 0xe1, 0xb8, 0xe7, 0x2f, 0xbc, 0xf7, 0xe6, 0xed, 0xde, 0xf9, 0x18,
  0xdd, 0xd5, 0xe1, 0xc7, 0x4e, 0x2a, 0x0e, 0x30, 0x2f, 0x22, 0xf7, 0xe5,
  0xff, 0xd8, 0x05, 0x7f, 0x03, 0xe5, 0x26, 0x29, 0xba, 0xd3, 0x06, 0xfc,
  0x08, 0x35, 0xe4, 0xf9, 0xed, 0xfe, 0xfc, 0x4c, 0xf9, 0xef, 0xf3, 0xf8,
  0xdd, 0x1c, 0xfd, 0xe2, 0xed, 0xd6, 0x07, 0xe0, 0x14, 0xe3, 0x04, 0xec,
  0x3a, 0xeb, 0x91, 0x12, 0x9c, 0xe1, 0xc3, 0x06, 0x08, 0x91, 0xf0, 0x81,
  0xdf, 0x21, 0x0f, 0xcf, 0xbf, 0xe6, 0x0e, 0x1a, 0x9e, 0xca, 0x01, 0xef,
  0x20, 0x91, 0x2a, 0xcf, 0xea, 0x03, 0x0e, 0x13, 0xd0, 0x4e, 0x10, 0x58,
  0xcc, 0x3f, 0xf4, 0x08, 0xfb, 0x98, 0xfa, 0x01, 0x02, 0xed, 0xd9, 0xba,
  0x72, 0xd1, 0xc4, 0x0b, 0xa4, 0x38, 0xb3, 0xb3, 0x50, 0x0f, 0xa7, 0x1f,
  0xaa, 0x04, 0xcc, 0x30, 0x0b, 0xb0, 0x48, 0xc8, 0xe3, 0x24, 0xe6, 0x06,
  0x20, 0xf8, 0x81, 0x75, 0xfc, 0xeb, 0xc9, 0x47, 0x2a, 0xf0, 0x3a, 0xd9,
  0x29, 0x69, 0x0c, 0x1a, 0x41, 0xb4, 0x92, 0xbe, 0xeb, 0xc1, 0xe3, 0x49,
  0xaa, 0x49, 0x19, 0xe3, 0xc0, 0x46, 0xec, 0xc1, 0xdf, 0xe5, 0xcf, 0xed,
  0xd1, 0x41, 0xf2, 0xc2, 0x07, 0xfb, 0xbe, 0xd5, 0x0b, 0xe7, 0xef, 0xee,
  0xcd, 0xd2, 0x11, 0x06, 0x1e, 0x0a, 0xd1, 0x0b, 0xd6, 0xe9, 0xeb, 0xe2,
  0xac, 0x06, 0xf2, 0x0e, 0xe0, 0x03, 0x17, 0xd5, 0xdd, 0xe8, 0xfb, 0x00,
  0xd1, 0xeb, 0xdb, 0xe7, 0xda, 0xef, 0xea, 0x08, 0xf2, 0x28, 0x06, 0xed,
  0xbb, 0xfc, 0xf2, 0x22, 0xf3, 0xe2, 0xcb, 0xf4, 0x0a, 0xf3, 0xf8, 0x10,
  0x4b, 0x0c, 0x0a, 0x0e, 0x81, 0x0e, 0x25, 0xfe, 0xf0, 0xfb, 0xfa, 0xd7,
  0xbb, 0x3b, 0x82, 0xdb, 0x27, 0xe4, 0x0b, 0x9c, 0x13, 0xe0, 0xc3, 0x0d,
  0x1d, 0x35, 0xc8, 0x18, 0xdf, 0xe9, 0x81, 0xe5, 0xc8, 0x63, 0xfe, 0xfc,
  0x14, 0x11, 0x19, 0xd9, 0xa9, 0x0e, 0xeb, 0xe2, 0x18, 0xc6, 0xb3, 0xdf,
  0xe3, 0xfb, 0xfb, 0xf1, 0xfd, 0x23, 0x45, 0xcc, 0xdd, 0xe4, 0xec, 0xd8,
  0xc5, 0xa2, 0xca, 0xb6, 0x13, 0xd5, 0x00, 0x46, 0xd6, 0xf3, 0xf3, 0xcd,
  0x11, 0xee, 0xe0, 0xea, 0x27, 0x1b, 0xcc, 0xf3, 0xda, 0x81, 0x34, 0xac,
  0xfa, 0x23, 0xfe, 0xe5, 0x25, 0xf3, 0x9c, 0xbc, 0xd1, 0xd1, 0xa0, 0x9d,
  0xfa, 0xc4, 0x58, 0xb0, 0x15, 0x01, 0x97, 0x38, 0x15, 0xc8, 0x38, 0x0f,
  0x40, 0x2f, 0xf0, 0x1a, 0x00, 0xa5, 0x02, 0xf6, 0xe6, 0xe8, 0x3d, 0xe8,
  0xdd, 0xf0, 0xe0, 0xd5, 0xf8, 0x10, 0xf1, 0x13, 0x28, 0xa2, 0x0e, 0xdd,
  0xff, 0xf6, 0xee, 0x08, 0x07, 0x04, 0x03, 0x0a, 0x00, 0x1b, 0xf2, 0x11,
  0x81, 0xd0, 0xf0, 0xff, 0x48, 0x92, 0xc7, 0x0b, 0xe6, 0xeb, 0xf3, 0x96,
  0xf1, 0xf3, 0x16, 0xd9, 0xc5, 0xd6, 0xf6, 0x06, 0x36, 0x3d, 0xfd, 0xfe,
  0xf6, 0x0a, 0xfc, 0xce, 0xc9, 0xde, 0x11, 0xf0, 0x48, 0xfd, 0x08, 0xfe,
  0x95, 0x03, 0xe6, 0x15, 0x13, 0xed, 0x13, 0xf2, 0x07, 0xdb, 0xec, 0x03,
  0x24, 0x0a, 0xf8, 0xf1, 0xd2, 0xed, 0xec, 0x0a, 0x21, 0x3b, 0x4e, 0xe4,
  0x3e, 0xfe, 0xff, 0xff, 0x04, 0x00, 0x00, 0x00, 0x40, 0x00, 0x00, 0x00,
  0xcf, 0xff, 0xff, 0xff, 0x00, 0x00, 0x00, 0x00, 0xfd, 0xff, 0xff, 0xff,
  0xce, 0xff, 0xff, 0xff, 0xf7, 0xff, 0xff, 0xff, 0xdc, 0xff, 0xff, 0xff,
  0xe5, 0xff, 0xff, 0xff, 0xf0, 0xff, 0xff, 0xff, 0x08, 0x00, 0x00, 0x00,
  0xfb, 0xff, 0xff, 0xff, 0xf1, 0xff, 0xff, 0xff, 0x07, 0x00, 0x00, 0x00,
  0xd2, 0xff, 0xff, 0xff, 0x07, 0x00, 0x00, 0x00, 0xf9, 0xff, 0xff, 0xff,
  0xd2, 0xff, 0xff, 0xff, 0x8a, 0xfe, 0xff, 0xff, 0x04, 0x00, 0x00, 0x00,
  0xc0, 0x00, 0x00, 0x00, 0xab, 0xfc, 0xe9, 0x91, 0xac, 0xd3, 0xed, 0x7f,
  0xa7, 0xf6, 0x4e, 0x40, 0x12, 0x81, 0xe1, 0x37, 0xec, 0xdf, 0xfd, 0x04,
  0xdb, 0xd2, 0x55, 0xc4, 0xe7, 0x7f, 0xb3, 0xd2, 0x39, 0x0c, 0xaa, 0x30,
  0xe7, 0xb6, 0x0a, 0x98, 0x96, 0x1d, 0x3d, 0x02, 0xc3, 0x5d, 0x26, 0x81,
  0xd5, 0x77, 0xdf, 0x04, 0x21, 0x81, 0x69, 0xe2, 0xb8, 0x54, 0xbc, 0xe6,
  0x4f, 0xd4, 0xc9, 0xc3, 0x2d, 0x43, 0x73, 0xf2, 0xe5, 0x35, 0x48, 0xa5,
  0xb7, 0xec, 0xbf, 0x81, 0xa9, 0x11, 0x20, 0x81, 0x4f, 0xe9, 0x3a, 0xed,
  0x1d, 0x5d, 0xb6, 0xf8, 0x07, 0xb3, 0x29, 0x33, 0x8e, 0x3c, 0xfb, 0x81,
  0x45, 0xfb, 0xa8, 0x52, 0x81, 0x6e, 0xfa, 0xbb, 0xfe, 0xc7, 0xee, 0x42,
  0xa5, 0x8b, 0x62, 0xdf, 0x36, 0x43, 0xd5, 0xcb, 0x33, 0x8a, 0x81, 0xe9,
  0x48, 0x3c, 0x88, 0x69, 0x16, 0xcb, 0x5f, 0x0a, 0xf1, 0xed, 0xda, 0x25,
  0x11, 0x42, 0x09, 0x81, 0x88, 0xd6, 0x7f, 0x2f, 0xa4, 0x44, 0x4b, 0x8e,
  0xdd, 0x44, 0x83, 0xa3, 0xc5, 0x7f, 0xbb, 0x35, 0xfc, 0x11, 0x01, 0xec,
  0xab, 0xcf, 0xd6, 0x51, 0xdb, 0xd7, 0x44, 0x48, 0x26, 0x9a, 0x81, 0x23,
  0xf4, 0x49, 0x95, 0x12, 0xdd, 0xe1, 0x61, 0x44, 0xc7, 0xc5, 0x47, 0x8b,
  0x34, 0xd8, 0x25, 0x81, 0x63, 0x3c, 0x36, 0x0d, 0x5e, 0xb1, 0x81, 0xbd,
  0x40, 0x13, 0xa2, 0xc7, 0x56, 0xff, 0xff, 0xff, 0x04, 0x00, 0x00, 0x00,
  0x08, 0x00, 0x00, 0x00, 0xff, 0xff, 0xff, 0xff, 0x40, 0x00, 0x00, 0x00,
  0x10, 0xf1, 0xff, 0xff, 0x14, 0xf1, 0xff, 0xff, 0x0f, 0x00, 0x00, 0x00,
  0x4d, 0x4c, 0x49, 0x52, 0x20, 0x43, 0x6f, 0x6e, 0x76, 0x65, 0x72, 0x74,
  0x65, 0x64, 0x2e, 0x00, 0x01, 0x00, 0x00, 0x00, 0x14, 0x00, 0x00, 0x00,
  0x00, 0x00, 0x0e, 0x00, 0x18, 0x00, 0x14, 0x00, 0x10, 0x00, 0x0c, 0x00,
  0x08, 0x00, 0x04, 0x00, 0x0e, 0x00, 0x00, 0x00, 0x14, 0x00, 0x00, 0x00,
  0x1c, 0x00, 0x00, 0x00, 0x58, 0x02, 0x00, 0x00, 0x5c, 0x02, 0x00, 0x00,
  0x60, 0x02, 0x00, 0x00, 0x04, 0x00, 0x00, 0x00, 0x6d, 0x61, 0x69, 0x6e,
  0x00, 0x00, 0x00, 0x00, 0x08, 0x00, 0x00, 0x00, 0xf4, 0x01, 0x00, 0x00,
  0x90, 0x01, 0x00, 0x00, 0x40, 0x01, 0x00, 0x00, 0xf0, 0x00, 0x00, 0x00,
  0xc8, 0x00, 0x00, 0x00, 0x78, 0x00, 0x00, 0x00, 0x40, 0x00, 0x00, 0x00,
  0x04, 0x00, 0x00, 0x00, 0x9a, 0xfe, 0xff, 0xff, 0x1c, 0x00, 0x00, 0x00,
  0x00, 0x00, 0x00, 0x09, 0x1c, 0x00, 0x00, 0x00, 0x20, 0x00, 0x00, 0x00,
  0x04, 0x00, 0x00, 0x00, 0x00, 0x00, 0x06, 0x00, 0x08, 0x00, 0x04, 0x00,
  0x06, 0x00, 0x00, 0x00, 0x00, 0x00, 0x80, 0x3f, 0x01, 0x00, 0x00, 0x00,
  0x11, 0x00, 0x00, 0x00, 0x01, 0x00, 0x00, 0x00, 0x10, 0x00, 0x00, 0x00,
  0xd2, 0xfe, 0xff, 0xff, 0x14, 0x00, 0x00, 0x00, 0x00, 0x00, 0x00, 0x08,
  0x10, 0x00, 0x00, 0x00, 0x14, 0x00, 0x00, 0x00, 0x03, 0x00, 0x00, 0x00,
  0xdc, 0xf1, 0xff, 0xff, 0x01, 0x00, 0x00, 0x00, 0x10, 0x00, 0x00, 0x00,
  0x03, 0x00, 0x00, 0x00, 0x0f, 0x00, 0x00, 0x00, 0x08, 0x00, 0x00, 0x00,
  0x09, 0x00, 0x00, 0x00, 0x06, 0xff, 0xff, 0xff, 0x1c, 0x00, 0x00, 0x00,
  0x00, 0x00, 0x00, 0x08, 0x1c, 0x00, 0x00, 0x00, 0x20, 0x00, 0x00, 0x00,
  0x03, 0x00, 0x00, 0x00, 0x00, 0x00, 0x06, 0x00, 0x08, 0x00, 0x07, 0x00,
  0x06, 0x00, 0x00, 0x00, 0x00, 0x00, 0x00, 0x01, 0x01, 0x00, 0x00, 0x00,
  0x0f, 0x00, 0x00, 0x00, 0x03, 0x00, 0x00, 0x00, 0x0e, 0x00, 0x00, 0x00,
  0x06, 0x00, 0x00, 0x00, 0x07, 0x00, 0x00, 0x00, 0x00, 0x00, 0x0a, 0x00,
  0x10, 0x00, 0x0c, 0x00, 0x08, 0x00, 0x04, 0x00, 0x0a, 0x00, 0x00, 0x00,
  0x0c, 0x00, 0x00, 0x00, 0x10, 0x00, 0x00, 0x00, 0x02, 0x00, 0x00, 0x00,
  0x01, 0x00, 0x00, 0x00, 0x0e, 0x00, 0x00, 0x00, 0x02, 0x00, 0x00, 0x00,
  0x0d, 0x00, 0x00, 0x00, 0x01, 0x00, 0x00, 0x00, 0x76, 0xff, 0xff, 0xff,
  0x24, 0x00, 0x00, 0x00, 0x00, 0x00, 0x00, 0x05, 0x30, 0x00, 0x00, 0x00,
  0x34, 0x00, 0x00, 0x00, 0x01, 0x00, 0x00, 0x00, 0x00, 0x00, 0x0e, 0x00,
  0x14, 0x00, 0x00, 0x00, 0x10, 0x00, 0x0c, 0x00, 0x08, 0x00, 0x04, 0x00,
  0x0e, 0x00, 0x00, 0x00, 0x03, 0x00, 0x00, 0x00, 0x01, 0x00, 0x00, 0x00,
  0x03, 0x00, 0x00, 0x00, 0x01, 0x00, 0x00, 0x00, 0x01, 0x00, 0x00, 0x00,
  0x0d, 0x00, 0x00, 0x00, 0x01, 0x00, 0x00, 0x00, 0x0c, 0x00, 0x00, 0x00,
  0x62, 0xff, 0xff, 0xff, 0x10, 0x00, 0x00, 0x00, 0x00, 0x00, 0x00, 0x01,
  0x18, 0x00, 0x00, 0x00, 0x1c, 0x00, 0x00, 0x00, 0x54, 0xff, 0xff, 0xff,
  0x00, 0x00, 0x00, 0x01, 0x01, 0x00, 0x00, 0x00, 0x01, 0x00, 0x00, 0x00,
  0x01, 0x00, 0x00, 0x00, 0x0c, 0x00, 0x00, 0x00, 0x03, 0x00, 0x00, 0x00,
  0x0b, 0x00, 0x00, 0x00, 0x04, 0x00, 0x00, 0x00, 0x05, 0x00, 0x00, 0x00,
  0x00, 0x00, 0x0e, 0x00, 0x1a, 0x00, 0x14, 0x00, 0x10, 0x00, 0x0c, 0x00,
  0x0b, 0x00, 0x04, 0x00, 0x0e, 0x00, 0x00, 0x00, 0x24, 0x00, 0x00, 0x00,
  0x00, 0x00, 0x00, 0x05, 0x34, 0x00, 0x00, 0x00, 0x38, 0x00, 0x00, 0x00,
  0x01, 0x00, 0x00, 0x00, 0x00, 0x00, 0x0e, 0x00, 0x18, 0x00, 0x17, 0x00,
  0x10, 0x00, 0x0c, 0x00, 0x08, 0x00, 0x04, 0x00, 0x0e, 0x00, 0x00, 0x00,
  0x03, 0x00, 0x00, 0x00, 0x03, 0x00, 0x00, 0x00, 0x03, 0x00, 0x00, 0x00,
  0x03, 0x00, 0x00, 0x00, 0x00, 0x00, 0x00, 0x01, 0x01, 0x00, 0x00, 0x00,
  0x0b, 0x00, 0x00, 0x00, 0x01, 0x00, 0x00, 0x00, 0x0a, 0x00, 0x00, 0x00,
  0x00, 0x00, 0x0e, 0x00, 0x14, 0x00, 0x00, 0x00, 0x10, 0x00, 0x0c, 0x00,
  0x0b, 0x00, 0x04, 0x00, 0x0e, 0x00, 0x00, 0x00, 0x1c, 0x00, 0x00, 0x00,
  0x00, 0x00, 0x00, 0x01, 0x24, 0x00, 0x00, 0x00, 0x28, 0x00, 0x00, 0x00,
  0x0c, 0x00, 0x10, 0x00, 0x00, 0x00, 0x0c, 0x00, 0x08, 0x00, 0x07, 0x00,
  0x0c, 0x00, 0x00, 0x00, 0x00, 0x00, 0x00, 0x01, 0x01, 0x00, 0x00, 0x00,
  0x01, 0x00, 0x00, 0x00, 0x01, 0x00, 0x00, 0x00, 0x0a, 0x00, 0x00, 0x00,
  0x03, 0x00, 0x00, 0x00, 0x00, 0x00, 0x00, 0x00, 0x02, 0x00, 0x00, 0x00,
  0x03, 0x00, 0x00, 0x00, 0x01, 0x00, 0x00, 0x00, 0x11, 0x00, 0x00, 0x00,
  0x01, 0x00, 0x00, 0x00, 0x00, 0x00, 0x00, 0x00, 0x12, 0x00, 0x00, 0x00,
  0x8c, 0x0c, 0x00, 0x00, 0x28, 0x0c, 0x00, 0x00, 0xf0, 0x0a, 0x00, 0x00,
  0xbc, 0x09, 0x00, 0x00, 0x90, 0x08, 0x00, 0x00, 0x5c, 0x07, 0x00, 0x00,
  0xf0, 0x06, 0x00, 0x00, 0x6c, 0x06, 0x00, 0x00, 0x00, 0x06, 0x00, 0x00,
  0x7c, 0x05, 0x00, 0x00, 0x60, 0x04, 0x00, 0x00, 0xcc, 0x03, 0x00, 0x00,
  0xd0, 0x02, 0x00, 0x00, 0x3c, 0x02, 0x00, 0x00, 0xc0, 0x01, 0x00, 0x00,
  0x0c, 0x01, 0x00, 0x00, 0x70, 0x00, 0x00, 0x00, 0x04, 0x00, 0x00, 0x00,
  0xd0, 0xf3, 0xff, 0xff, 0x18, 0x00, 0x00, 0x00, 0x20, 0x00, 0x00, 0x00,
  0x40, 0x00, 0x00, 0x00, 0x12, 0x00, 0x00, 0x00, 0x00, 0x00, 0x00, 0x09,
  0x44, 0x00, 0x00, 0x00, 0x02, 0x00, 0x00, 0x00, 0xff, 0xff, 0xff, 0xff,
  0x09, 0x00, 0x00, 0x00, 0xb4, 0xf3, 0xff, 0xff, 0x08, 0x00, 0x00, 0x00,
  0x14, 0x00, 0x00, 0x00, 0x01, 0x00, 0x00, 0x00, 0x80, 0xff, 0xff, 0xff,
  0xff, 0xff, 0xff, 0xff, 0x00, 0x00, 0x00, 0x00, 0x01, 0x00, 0x00, 0x00,
  0x00, 0x00, 0x80, 0x3b, 0x08, 0x00, 0x00, 0x00, 0x49, 0x64, 0x65, 0x6e,
  0x74, 0x69, 0x74, 0x79, 0x00, 0x00, 0x00, 0x00, 0x02, 0x00, 0x00, 0x00,
  0x01, 0x00, 0x00, 0x00, 0x09, 0x00, 0x00, 0x00, 0x38, 0xf4, 0xff, 0xff,
  0x18, 0x00, 0x00, 0x00, 0x20, 0x00, 0x00, 0x00, 0x40, 0x00, 0x00, 0x00,
  0x11, 0x00, 0x00, 0x00, 0x00, 0x00, 0x00, 0x09, 0x74, 0x00, 0x00, 0x00,
  0x02, 0x00, 0x00, 0x00, 0xff, 0xff, 0xff, 0xff, 0x09, 0x00, 0x00, 0x00,
  0x1c, 0xf4, 0xff, 0xff, 0x08, 0x00, 0x00, 0x00, 0x14, 0x00, 0x00, 0x00,
  0x01, 0x00, 0x00, 0x00, 0x16, 0x00, 0x00, 0x00, 0x00, 0x00, 0x00, 0x00,
  0x00, 0x00, 0x00, 0x00, 0x01, 0x00, 0x00, 0x00, 0x71, 0xf3, 0xd9, 0x3f,
  0x38, 0x00, 0x00, 0x00, 0x73, 0x65, 0x71, 0x75, 0x65, 0x6e, 0x74, 0x69,
  0x61, 0x6c, 0x5f, 0x31, 0x2f, 0x64, 0x65, 0x6e, 0x73, 0x65, 0x5f, 0x33,
  0x2f, 0x4d, 0x61, 0x74, 0x4d, 0x75, 0x6c, 0x3b, 0x73, 0x65, 0x71, 0x75,
  0x65, 0x6e, 0x74, 0x69, 0x61, 0x6c, 0x5f, 0x31, 0x2f, 0x64, 0x65, 0x6e,
  0x73, 0x65, 0x5f, 0x33, 0x2f, 0x42, 0x69, 0x61, 0x73, 0x41, 0x64, 0x64,
  0x00, 0x00, 0x00, 0x00, 0x02, 0x00, 0x00, 0x00, 0x01, 0x00, 0x00, 0x00,
  0x09, 0x00, 0x00, 0x00, 0xd0, 0xf4, 0xff, 0xff, 0x18, 0x00, 0x00, 0x00,
  0x20, 0x00, 0x00, 0x00, 0x40, 0x00, 0x00, 0x00, 0x10, 0x00, 0x00, 0x00,
  0x00, 0x00, 0x00, 0x09, 0x8c, 0x00, 0x00, 0x00, 0x02, 0x00, 0x00, 0x00,
  0xff, 0xff, 0xff, 0xff, 0x10, 0x00, 0x00, 0x00, 0xb4, 0xf4, 0xff, 0xff,
  0x08, 0x00, 0x00, 0x00, 0x14, 0x00, 0x00, 0x00, 0x01, 0x00, 0x00, 0x00,
  0x80, 0xff, 0xff, 0xff, 0xff, 0xff, 0xff, 0xff, 0x00, 0x00, 0x00, 0x00,
  0x01, 0x00, 0x00, 0x00, 0xe0, 0x1d, 0x61, 0x3f, 0x52, 0x00, 0x00, 0x00,
  0x73, 0x65, 0x71, 0x75, 0x65, 0x6e, 0x74, 0x69, 0x61, 0x6c, 0x5f, 0x31,
  0x2f, 0x64, 0x65, 0x6e, 0x73, 0x65, 0x5f, 0x32, 0x2f, 0x4d, 0x61, 0x74,
  0x4d, 0x75, 0x6c, 0x3b, 0x73, 0x65, 0x71, 0x75, 0x65, 0x6e, 0x74, 0x69,
  0x61, 0x6c, 0x5f, 0x31, 0x2f, 0x64, 0x65, 0x6e, 0x73, 0x65, 0x5f, 0x32,
  0x2f, 0x52, 0x65, 0x6c, 0x75, 0x3b, 0x73, 0x65, 0x71, 0x75, 0x65, 0x6e,
  0x74, 0x69, 0x61, 0x6c, 0x5f, 0x31, 0x2f, 0x64, 0x65, 0x6e, 0x73, 0x65,
  0x5f, 0x32, 0x2f, 0x42, 0x69, 0x61, 0x73, 0x41, 0x64, 0x64, 0x00, 0x00,
  0x02, 0x00, 0x00, 0x00, 0x01, 0x00, 0x00, 0x00, 0x10, 0x00, 0x00, 0x00,
  0x80, 0xf5, 0xff, 0xff, 0x18, 0x00, 0x00, 0x00, 0x20, 0x00, 0x00, 0x00,
  0x3c, 0x00, 0x00, 0x00, 0x0f, 0x00, 0x00, 0x00, 0x00, 0x00, 0x00, 0x09,
  0x54, 0x00, 0x00, 0x00, 0x02, 0x00, 0x00, 0x00, 0xff, 0xff, 0xff, 0xff,
  0x40, 0x00, 0x00, 0x00, 0x64, 0xf5, 0xff, 0xff, 0x08, 0x00, 0x00, 0x00,
  0x10, 0x00, 0x00, 0x00, 0x01, 0x00, 0x00, 0x00, 0x80, 0xff, 0xff, 0xff,
  0xff, 0xff, 0xff, 0xff, 0x01, 0x00, 0x00, 0x00, 0x16, 0x03, 0x02, 0x3f,
  0x1e, 0x00, 0x00, 0x00, 0x73, 0x65, 0x71, 0x75, 0x65, 0x6e, 0x74, 0x69,
  0x61, 0x6c, 0x5f, 0x31, 0x2f, 0x66, 0x6c, 0x61, 0x74, 0x74, 0x65, 0x6e,
  0x5f, 0x31, 0x2f, 0x52, 0x65, 0x73, 0x68, 0x61, 0x70, 0x65, 0x00, 0x00,
  0x02, 0x00, 0x00, 0x00, 0x01, 0x00, 0x00, 0x00, 0x40, 0x00, 0x00, 0x00,
  0xf8, 0xf5, 0xff, 0xff, 0x18, 0x00, 0x00, 0x00, 0x28, 0x00, 0x00, 0x00,
  0x44, 0x00, 0x00, 0x00, 0x0e, 0x00, 0x00, 0x00, 0x00, 0x00, 0x00, 0x09,
  0x64, 0x00, 0x00, 0x00, 0x04, 0x00, 0x00, 0x00, 0xff, 0xff, 0xff, 0xff,
  0x02, 0x00, 0x00, 0x00, 0x02, 0x00, 0x00, 0x00, 0x10, 0x00, 0x00, 0x00,
  0xe4, 0xf5, 0xff, 0xff, 0x08, 0x00, 0x00, 0x00, 0x10, 0x00, 0x00, 0x00,
  0x01, 0x00, 0x00, 0x00, 0x80, 0xff, 0xff, 0xff, 0xff, 0xff, 0xff, 0xff,
  0x01, 0x00, 0x00, 0x00, 0x16, 0x03, 0x02, 0x3f, 0x24, 0x00, 0x00, 0x00,
  0x73, 0x65, 0x71, 0x75, 0x65, 0x6e, 0x74, 0x69, 0x61, 0x6c, 0x5f, 0x31,
  0x2f, 0x6d, 0x61, 0x78, 0x5f, 0x70, 0x6f, 0x6f, 0x6c, 0x69, 0x6e, 0x67,
  0x32, 0x64, 0x5f, 0x33, 0x2f, 0x4d, 0x61, 0x78, 0x50, 0x6f, 0x6f, 0x6c,
  0x00, 0x00, 0x00, 0x00, 0x04, 0x00, 0x00, 0x00, 0x01, 0x00, 0x00, 0x00,
  0x02, 0x00, 0x00, 0x00, 0x02, 0x00, 0x00, 0x00, 0x10, 0x00, 0x00, 0x00,
  0x88, 0xf6, 0xff, 0xff, 0x18, 0x00, 0x00, 0x00, 0x28, 0x00, 0x00, 0x00,
  0x48, 0x00, 0x00, 0x00, 0x0d, 0x00, 0x00, 0x00, 0x00, 0x00, 0x00, 0x09,
  0xcc, 0x00, 0x00, 0x00, 0x04, 0x00, 0x00, 0x00, 0xff, 0xff, 0xff, 0xff,
  0x06, 0x00, 0x00, 0x00, 0x02, 0x00, 0x00, 0x00, 0x10, 0x00, 0x00, 0x00,
  0x74, 0xf6, 0xff, 0xff, 0x08, 0x00, 0x00, 0x00, 0x14, 0x00, 0x00, 0x00,
  0x01, 0x00, 0x00, 0x00, 0x80, 0xff, 0xff, 0xff, 0xff, 0xff, 0xff, 0xff,
  0x00, 0x00, 0x00, 0x00, 0x01, 0x00, 0x00, 0x00, 0x16, 0x03, 0x02, 0x3f,
  0x8b, 0x00, 0x00, 0x00, 0x73, 0x65, 0x71, 0x75, 0x65, 0x6e, 0x74, 0x69,
  0x61, 0x6c, 0x5f, 0x31, 0x2f, 0x63, 0x6f, 0x6e, 0x76, 0x32, 0x64, 0x5f,
  0x33, 0x2f, 0x52, 0x65, 0x6c, 0x75, 0x3b, 0x73, 0x65, 0x71, 0x75, 0x65,
  0x6e, 0x74, 0x69, 0x61, 0x6c, 0x5f, 0x31, 0x2f, 0x63, 0x6f, 0x6e, 0x76,
  0x32, 0x64, 0x5f, 0x33, 0x2f, 0x42, 0x69, 0x61, 0x73, 0x41, 0x64, 0x64,
  0x3b, 0x73, 0x65, 0x71, 0x75, 0x65, 0x6e, 0x74, 0x69, 0x61, 0x6c, 0x5f,
  0x31, 0x2f, 0x63, 0x6f, 0x6e, 0x76, 0x32, 0x64, 0x5f, 0x33, 0x2f, 0x43,
  0x6f, 0x6e, 0x76, 0x32, 0x44, 0x3b, 0x73, 0x65, 0x71, 0x75, 0x65, 0x6e,
  0x74, 0x69, 0x61, 0x6c, 0x5f, 0x31, 0x2f, 0x63, 0x6f, 0x6e, 0x76, 0x32,
  0x64, 0x5f, 0x33, 0x2f, 0x42, 0x69, 0x61, 0x73, 0x41, 0x64, 0x64, 0x2f,
  0x52, 0x65, 0x61, 0x64, 0x56, 0x61, 0x72, 0x69, 0x61, 0x62, 0x6c, 0x65,
  0x4f, 0x70, 0x2f, 0x72, 0x65, 0x73, 0x6f, 0x75, 0x72, 0x63, 0x65, 0x00,
  0x04, 0x00, 0x00, 0x00, 0x01, 0x00, 0x00, 0x00, 0x06, 0x00, 0x00, 0x00,
  0x02, 0x00, 0x00, 0x00, 0x10, 0x00, 0x00, 0x00, 0x80, 0xf7, 0xff, 0xff,
  0x18, 0x00, 0x00, 0x00, 0x28, 0x00, 0x00, 0x00, 0x44, 0x00, 0x00, 0x00,
  0x0c, 0x00, 0x00, 0x00, 0x00, 0x00, 0x00, 0x09, 0x64, 0x00, 0x00, 0x00,
  0x04, 0x00, 0x00, 0x00, 0xff, 0xff, 0xff, 0xff, 0x06, 0x00, 0x00, 0x00,
  0x02, 0x00, 0x00, 0x00, 0x10, 0x00, 0x00, 0x00, 0x6c, 0xf7, 0xff, 0xff,
  0x08, 0x00, 0x00, 0x00, 0x10, 0x00, 0x00, 0x00, 0x01, 0x00, 0x00, 0x00,
  0x80, 0xff, 0xff, 0xff, 0xff, 0xff, 0xff, 0xff, 0x01, 0x00, 0x00, 0x00,
  0x18, 0x4f, 0x2f, 0x3f, 0x24, 0x00, 0x00, 0x00, 0x73, 0x65, 0x71, 0x75,
  0x65, 0x6e, 0x74, 0x69, 0x61, 0x6c, 0x5f, 0x31, 0x2f, 0x6d, 0x61, 0x78,
  0x5f, 0x70, 0x6f, 0x6f, 0x6c, 0x69, 0x6e, 0x67, 0x32, 0x64, 0x5f, 0x32,
  0x2f, 0x4d, 0x61, 0x78, 0x50, 0x6f, 0x6f, 0x6c, 0x00, 0x00, 0x00, 0x00,
  0x04, 0x00, 0x00, 0x00, 0x01, 0x00, 0x00, 0x00, 0x06, 0x00, 0x00, 0x00,
  0x02, 0x00, 0x00, 0x00, 0x10, 0x00, 0x00, 0x00, 0x10, 0xf8, 0xff, 0xff,
  0x18, 0x00, 0x00, 0x00, 0x28, 0x00, 0x00, 0x00, 0x48, 0x00, 0x00, 0x00,
  0x0b, 0x00, 0x00, 0x00, 0x00, 0x00, 0x00, 0x09, 0xec, 0x00, 0x00, 0x00,
  0x04, 0x00, 0x00, 0x00, 0xff, 0xff, 0xff, 0xff, 0x14, 0x00, 0x00, 0x00,
  0x06, 0x00, 0x00, 0x00, 0x10, 0x00, 0x00, 0x00, 0xfc, 0xf7, 0xff, 0xff,
  0x08, 0x00, 0x00, 0x00, 0x14, 0x00, 0x00, 0x00, 0x01, 0x00, 0x00, 0x00,
  0x80, 0xff, 0xff, 0xff, 0xff, 0xff, 0xff, 0xff, 0x00, 0x00, 0x00, 0x00,
  0x01, 0x00, 0x00, 0x00, 0x18, 0x4f, 0x2f, 0x3f, 0xa8, 0x00, 0x00, 0x00,
  0x73, 0x65, 0x71, 0x75, 0x65, 0x6e, 0x74, 0x69, 0x61, 0x6c, 0x5f, 0x31,
  0x2f, 0x63, 0x6f, 0x6e, 0x76, 0x32, 0x64, 0x5f, 0x32, 0x2f, 0x52, 0x65,
  0x6c, 0x75, 0x3b, 0x73, 0x65, 0x71, 0x75, 0x65, 0x6e, 0x74, 0x69, 0x61,
  0x6c, 0x5f, 0x31, 0x2f, 0x63, 0x6f, 0x6e, 0x76, 0x32, 0x64, 0x5f, 0x32,
  0x2f, 0x42, 0x69, 0x61, 0x73, 0x41, 0x64, 0x64, 0x3b, 0x73, 0x65, 0x71,
  0x75, 0x65, 0x6e, 0x74, 0x69, 0x61, 0x6c, 0x5f, 0x31, 0x2f, 0x63, 0x6f,
  0x6e, 0x76, 0x32, 0x64, 0x5f, 0x33, 0x2f, 0x43, 0x6f, 0x6e, 0x76, 0x32,
  0x44, 0x3b, 0x73, 0x65, 0x71, 0x75, 0x65, 0x6e, 0x74, 0x69, 0x61, 0x6c,
  0x5f, 0x31, 0x2f, 0x63, 0x6f, 0x6e, 0x76, 0x32, 0x64, 0x5f, 0x32, 0x2f,
  0x43, 0x6f, 0x6e, 0x76, 0x32, 0x44, 0x3b, 0x73, 0x65, 0x71, 0x75, 0x65,
  0x6e, 0x74, 0x69, 0x61, 0x6c, 0x5f, 0x31, 0x2f, 0x63, 0x6f, 0x6e, 0x76,
  0x32, 0x64, 0x5f, 0x32, 0x2f, 0x42, 0x69, 0x61, 0x73, 0x41, 0x64, 0x64,
  0x2f, 0x52, 0x65, 0x61, 0x64, 0x56, 0x61, 0x72, 0x69, 0x61, 0x62, 0x6c,
  0x65, 0x4f, 0x70, 0x2f, 0x72, 0x65, 0x73, 0x6f, 0x75, 0x72, 0x63, 0x65,
  0x00, 0x00, 0x00, 0x00, 0x04, 0x00, 0x00, 0x00, 0x01, 0x00, 0x00, 0x00,
  0x14, 0x00, 0x00, 0x00, 0x06, 0x00, 0x00, 0x00, 0x10, 0x00, 0x00, 0x00,
  0x82, 0xf9, 0xff, 0xff, 0x14, 0x00, 0x00, 0x00, 0x34, 0x00, 0x00, 0x00,
  0x0a, 0x00, 0x00, 0x00, 0x00, 0x00, 0x00, 0x02, 0x64, 0x00, 0x00, 0x00,
  0xfc, 0xf8, 0xff, 0xff, 0x08, 0x00, 0x00, 0x00, 0x14, 0x00, 0x00, 0x00,
  0x01, 0x00, 0x00, 0x00, 0x00, 0x00, 0x00, 0x00, 0x00, 0x00, 0x00, 0x00,
  0x00, 0x00, 0x00, 0x00, 0x01, 0x00, 0x00, 0x00, 0xff, 0x48, 0xc5, 0x3b,
  0x34, 0x00, 0x00, 0x00, 0x73, 0x65, 0x71, 0x75, 0x65, 0x6e, 0x74, 0x69,
  0x61, 0x6c, 0x5f, 0x31, 0x2f, 0x64, 0x65, 0x6e, 0x73, 0x65, 0x5f, 0x33,
  0x2f, 0x42, 0x69, 0x61, 0x73, 0x41, 0x64, 0x64, 0x2f, 0x52, 0x65, 0x61,
  0x64, 0x56, 0x61, 0x72, 0x69, 0x61, 0x62, 0x6c, 0x65, 0x4f, 0x70, 0x2f,
  0x72, 0x65, 0x73, 0x6f, 0x75, 0x72, 0x63, 0x65, 0x00, 0x00, 0x00, 0x00,
  0x01, 0x00, 0x00, 0x00, 0x09, 0x00, 0x00, 0x00, 0x02, 0xfa, 0xff, 0xff,
  0x14, 0x00, 0x00, 0x00, 0x34, 0x00, 0x00, 0x00, 0x09, 0x00, 0x00, 0x00,
  0x00, 0x00, 0x00, 0x09, 0x48, 0x00, 0x00, 0x00, 0x7c, 0xf9, 0xff, 0xff,
  0x08, 0x00, 0x00, 0x00, 0x14, 0x00, 0x00, 0x00, 0x01, 0x00, 0x00, 0x00,
  0x00, 0x00, 0x00, 0x00, 0x00, 0x00, 0x00, 0x00, 0x00, 0x00, 0x00, 0x00,
  0x01, 0x00, 0x00, 0x00, 0xac, 0x59, 0xe0, 0x3b, 0x1b, 0x00, 0x00, 0x00,
  0x73, 0x65, 0x71, 0x75, 0x65, 0x6e, 0x74, 0x69, 0x61, 0x6c, 0x5f, 0x31,
  0x2f, 0x64, 0x65, 0x6e, 0x73, 0x65, 0x5f, 0x33, 0x2f, 0x4d, 0x61, 0x74,
  0x4d, 0x75, 0x6c, 0x00, 0x02, 0x00, 0x00, 0x00, 0x09, 0x00, 0x00, 0x00,
  0x10, 0x00, 0x00, 0x00, 0x6a, 0xfa, 0xff, 0xff, 0x14, 0x00, 0x00, 0x00,
  0x34, 0x00, 0x00, 0x00, 0x08, 0x00, 0x00, 0x00, 0x00, 0x00, 0x00, 0x02,
  0x64, 0x00, 0x00, 0x00, 0xe4, 0xf9, 0xff, 0xff, 0x08, 0x00, 0x00, 0x00,
  0x14, 0x00, 0x00, 0x00, 0x01, 0x00, 0x00, 0x00, 0x00, 0x00, 0x00, 0x00,
  0x00, 0x00, 0x00, 0x00, 0x00, 0x00, 0x00, 0x00, 0x01, 0x00, 0x00, 0x00,
  0x30, 0x75, 0x3b, 0x3b, 0x34, 0x00, 0x00, 0x00, 0x73, 0x65, 0x71, 0x75,
  0x65, 0x6e, 0x74, 0x69, 0x61, 0x6c, 0x5f, 0x31, 0x2f, 0x64, 0x65, 0x6e,
  0x73, 0x65, 0x5f, 0x32, 0x2f, 0x42, 0x69, 0x61, 0x73, 0x41, 0x64, 0x64,
  0x2f, 0x52, 0x65, 0x61, 0x64, 0x56, 0x61, 0x72, 0x69, 0x61, 0x62, 0x6c,
  0x65, 0x4f, 0x70, 0x2f, 0x72, 0x65, 0x73, 0x6f, 0x75, 0x72, 0x63, 0x65,
  0x00, 0x00, 0x00, 0x00, 0x01, 0x00, 0x00, 0x00, 0x10, 0x00, 0x00, 0x00,
  0xea, 0xfa, 0xff, 0xff, 0x14, 0x00, 0x00, 0x00, 0x34, 0x00, 0x00, 0x00,
  0x07, 0x00, 0x00, 0x00, 0x00, 0x00, 0x00, 0x09, 0x48, 0x00, 0x00, 0x00,
  0x64, 0xfa, 0xff, 0xff, 0x08, 0x00, 0x00, 0x00, 0x14, 0x00, 0x00, 0x00,
  0x01, 0x00, 0x00, 0x00, 0x00, 0x00, 0x00, 0x00, 0x00, 0x00, 0x00, 0x00,
  0x00, 0x00, 0x00, 0x00, 0x01, 0x00, 0x00, 0x00, 0x83, 0x8e, 0xb8, 0x3b,
  0x1b, 0x00, 0x00, 0x00, 0x73, 0x65, 0x71, 0x75, 0x65, 0x6e, 0x74, 0x69,
  0x61, 0x6c, 0x5f, 0x31, 0x2f, 0x64, 0x65, 0x6e, 0x73, 0x65, 0x5f, 0x32,
  0x2f, 0x4d, 0x61, 0x74, 0x4d, 0x75, 0x6c, 0x00, 0x02, 0x00, 0x00, 0x00,
  0x10, 0x00, 0x00, 0x00, 0x40, 0x00, 0x00, 0x00, 0x52, 0xfb, 0xff, 0xff,
  0x14, 0x00, 0x00, 0x00, 0xe4, 0x00, 0x00, 0x00, 0x06, 0x00, 0x00, 0x00,
  0x00, 0x00, 0x00, 0x02, 0x14, 0x01, 0x00, 0x00, 0xcc, 0xfa, 0xff, 0xff,
  0x08, 0x00, 0x00, 0x00, 0x88, 0x00, 0x00, 0x00, 0x10, 0x00, 0x00, 0x00,
  0x00, 0x00, 0x00, 0x00, 0x00, 0x00, 0x00, 0x00, 0x00, 0x00, 0x00, 0x00,
  0x00, 0x00, 0x00, 0x00, 0x00, 0x00, 0x00, 0x00, 0x00, 0x00, 0x00, 0x00,
  0x00, 0x00, 0x00, 0x00, 0x00, 0x00, 0x00, 0x00, 0x00, 0x00, 0x00, 0x00,
  0x00, 0x00, 0x00, 0x00, 0x00, 0x00, 0x00, 0x00, 0x00, 0x00, 0x00, 0x00,
  0x00, 0x00, 0x00, 0x00, 0x00, 0x00, 0x00, 0x00, 0x00, 0x00, 0x00, 0x00,
  0x00, 0x00, 0x00, 0x00, 0x00, 0x00, 0x00, 0x00, 0x00, 0x00, 0x00, 0x00,
  0x00, 0x00, 0x00, 0x00, 0x00, 0x00, 0x00, 0x00, 0x00, 0x00, 0x00, 0x00,
  0x00, 0x00, 0x00, 0x00, 0x00, 0x00, 0x00, 0x00, 0x00, 0x00, 0x00, 0x00,
  0x00, 0x00, 0x00, 0x00, 0x00, 0x00, 0x00, 0x00, 0x00, 0x00, 0x00, 0x00,
  0x00, 0x00, 0x00, 0x00, 0x00, 0x00, 0x00, 0x00, 0x00, 0x00, 0x00, 0x00,
  0x00, 0x00, 0x00, 0x00, 0x00, 0x00, 0x00, 0x00, 0x10, 0x00, 0x00, 0x00,
  0x5f, 0xb8, 0x5c, 0x3b, 0x81, 0x04, 0x33, 0x3b, 0x00, 0x07, 0x33, 0x3b,
  0xef, 0xc3, 0x73, 0x3b, 0x80, 0x58, 0x1c, 0x3b, 0x12, 0x67, 0x1a, 0x3b,
  0xc7, 0x5b, 0xff, 0x3a, 0x7d, 0xf6, 0x4f, 0x3b, 0xcb, 0x3d, 0x5c, 0x3b,
  0x27, 0x04, 0x31, 0x3b, 0x9c, 0x78, 0x1c, 0x3b, 0xf7, 0x8b, 0xe4, 0x3a,
  0x3c, 0x6e, 0x43, 0x3b, 0xeb, 0xd6, 0x45, 0x3b, 0x50, 0xa0, 0x10, 0x3b,
  0x05, 0xc2, 0x48, 0x3b, 0x35, 0x00, 0x00, 0x00, 0x73, 0x65, 0x71, 0x75,
  0x65, 0x6e, 0x74, 0x69, 0x61, 0x6c, 0x5f, 0x31, 0x2f, 0x63, 0x6f, 0x6e,
  0x76, 0x32, 0x64, 0x5f, 0x33, 0x2f, 0x42, 0x69, 0x61, 0x73, 0x41, 0x64,
  0x64, 0x2f, 0x52, 0x65, 0x61, 0x64, 0x56, 0x61, 0x72, 0x69, 0x61, 0x62,
  0x6c, 0x65, 0x4f, 0x70, 0x2f, 0x72, 0x65, 0x73, 0x6f, 0x75, 0x72, 0x63,
  0x65, 0x00, 0x00, 0x00, 0x01, 0x00, 0x00, 0x00, 0x10, 0x00, 0x00, 0x00,
  0x82, 0xfc, 0xff, 0xff, 0x14, 0x00, 0x00, 0x00, 0xe8, 0x00, 0x00, 0x00,
  0x05, 0x00, 0x00, 0x00, 0x00, 0x00, 0x00, 0x09, 0x00, 0x01, 0x00, 0x00,
  0xfc, 0xfb, 0xff, 0xff, 0x08, 0x00, 0x00, 0x00, 0x8c, 0x00, 0x00, 0x00,
  0x10, 0x00, 0x00, 0x00, 0x00, 0x00, 0x00, 0x00, 0x00, 0x00, 0x00, 0x00,
  0x00, 0x00, 0x00, 0x00, 0x00, 0x00, 0x00, 0x00, 0x00, 0x00, 0x00, 0x00,
  0x00, 0x00, 0x00, 0x00, 0x00, 0x00, 0x00, 0x00, 0x00, 0x00, 0x00, 0x00,
  0x00, 0x00, 0x00, 0x00, 0x00, 0x00, 0x00, 0x00, 0x00, 0x00, 0x00, 0x00,
  0x00, 0x00, 0x00, 0x00, 0x00, 0x00, 0x00, 0x00, 0x00, 0x00, 0x00, 0x00,
  0x00, 0x00, 0x00, 0x00, 0x00, 0x00, 0x00, 0x00, 0x00, 0x00, 0x00, 0x00,
  0x00, 0x00, 0x00, 0x00, 0x00, 0x00, 0x00, 0x00, 0x00, 0x00, 0x00, 0x00,
  0x00, 0x00, 0x00, 0x00, 0x00, 0x00, 0x00, 0x00, 0x00, 0x00, 0x00, 0x00,
  0x00, 0x00, 0x00, 0x00, 0x00, 0x00, 0x00, 0x00, 0x00, 0x00, 0x00, 0x00,
  0x00, 0x00, 0x00, 0x00, 0x00, 0x00, 0x00, 0x00, 0x00, 0x00, 0x00, 0x00,
  0x00, 0x00, 0x00, 0x00, 0x00, 0x00, 0x00, 0x00, 0x00, 0x00, 0x00, 0x00,
  0x00, 0x00, 0x00, 0x00, 0x10, 0x00, 0x00, 0x00, 0x13, 0x28, 0xa1, 0x3b,
  0x34, 0xb5, 0x82, 0x3b, 0x06, 0xb7, 0x82, 0x3b, 0x94, 0xfb, 0xb1, 0x3b,
  0xf0, 0x4e, 0x64, 0x3b, 0x8e, 0x78, 0x61, 0x3b, 0x85, 0x72, 0x3a, 0x3b,
  0x86, 0xd7, 0x97, 0x3b, 0x93, 0xce, 0xa0, 0x3b, 0x1d, 0x3f, 0x81, 0x3b,
  0xd4, 0x7d, 0x64, 0x3b, 0xfa, 0xde, 0x26, 0x3b, 0x0d, 0xb1, 0x8e, 0x3b,
  0x51, 0x73, 0x90, 0x3b, 0xd4, 0x31, 0x53, 0x3b, 0xce, 0x94, 0x92, 0x3b,
  0x1c, 0x00, 0x00, 0x00, 0x73, 0x65, 0x71, 0x75, 0x65, 0x6e, 0x74, 0x69,
  0x61, 0x6c, 0x5f, 0x31, 0x2f, 0x63, 0x6f, 0x6e, 0x76, 0x32, 0x64, 0x5f,
  0x33, 0x2f, 0x43, 0x6f, 0x6e, 0x76, 0x32, 0x44, 0x00, 0x00, 0x00, 0x00,
  0x04, 0x00, 0x00, 0x00, 0x10, 0x00, 0x00, 0x00, 0x04, 0x00, 0x00, 0x00,
  0x01, 0x00, 0x00, 0x00, 0x10, 0x00, 0x00, 0x00, 0xaa, 0xfd, 0xff, 0xff,
  0x14, 0x00, 0x00, 0x00, 0xe4, 0x00, 0x00, 0x00, 0x04, 0x00, 0x00, 0x00,
  0x00, 0x00, 0x00, 0x02, 0x14, 0x01, 0x00, 0x00, 0x24, 0xfd, 0xff, 0xff,
  0x08, 0x00, 0x00, 0x00, 0x88, 0x00, 0x00, 0x00, 0x10, 0x00, 0x00, 0x00,
  0x00, 0x00, 0x00, 0x00, 0x00, 0x00, 0x00, 0x00, 0x00, 0x00, 0x00, 0x00,
  0x00, 0x00, 0x00, 0x00, 0x00, 0x00, 0x00, 0x00, 0x00, 0x00, 0x00, 0x00,
  0x00, 0x00, 0x00, 0x00, 0x00, 0x00, 0x00, 0x00, 0x00, 0x00, 0x00, 0x00,
  0x00, 0x00, 0x00, 0x00, 0x00, 0x00, 0x00, 0x00, 0x00, 0x00, 0x00, 0x00,
  0x00, 0x00, 0x00, 0x00, 0x00, 0x00, 0x00, 0x00, 0x00, 0x00, 0x00, 0x00,
  0x00, 0x00, 0x00, 0x00, 0x00, 0x00, 0x00, 0x00, 0x00, 0x00, 0x00, 0x00,
  0x00, 0x00, 0x00, 0x00, 0x00, 0x00, 0x00, 0x00, 0x00, 0x00, 0x00, 0x00,
  0x00, 0x00, 0x00, 0x00, 0x00, 0x00, 0x00, 0x00, 0x00, 0x00, 0x00, 0x00,
  0x00, 0x00, 0x00, 0x00, 0x00, 0x00, 0x00, 0x00, 0x00, 0x00, 0x00, 0x00,
  0x00, 0x00, 0x00, 0x00, 0x00, 0x00, 0x00, 0x00, 0x00, 0x00, 0x00, 0x00,
  0x00, 0x00, 0x00, 0x00, 0x00, 0x00, 0x00, 0x00, 0x10, 0x00, 0x00, 0x00,
  0xec, 0x6b, 0xa3, 0x3b, 0x94, 0xc5, 0xeb, 0x3b, 0x1c, 0x3c, 0xaf, 0x3b,
  0xbc, 0xba, 0x70, 0x3b, 0x88, 0xee, 0xaf, 0x3b, 0x54, 0xed, 0xc6, 0x3b,
  0xb5, 0x03, 0x94, 0x3b, 0xc4, 0x86, 0xa1, 0x3b, 0xe8, 0x39, 0xac, 0x3b,
  0x29, 0xe0, 0x89, 0x3b, 0x54, 0xc3, 0xd2, 0x3b, 0xc3, 0x55, 0xa1, 0x3b,
  0xb9, 0xcd, 0xc0, 0x3b, 0x2e, 0x89, 0x94, 0x3b, 0x09, 0xa9, 0xd1, 0x3b,
  0xb5, 0x52, 0xaa, 0x3b, 0x35, 0x00, 0x00, 0x00, 0x73, 0x65, 0x71, 0x75,
  0x65, 0x6e, 0x74, 0x69, 0x61, 0x6c, 0x5f, 0x31, 0x2f, 0x63, 0x6f, 0x6e,
  0x76, 0x32, 0x64, 0x5f, 0x32, 0x2f, 0x42, 0x69, 0x61, 0x73, 0x41, 0x64,
  0x64, 0x2f, 0x52, 0x65, 0x61, 0x64, 0x56, 0x61, 0x72, 0x69, 0x61, 0x62,
  0x6c, 0x65, 0x4f, 0x70, 0x2f, 0x72, 0x65, 0x73, 0x6f, 0x75, 0x72, 0x63,
  0x65, 0x00, 0x00, 0x00, 0x01, 0x00, 0x00, 0x00, 0x10, 0x00, 0x00, 0x00,
  0xda, 0xfe, 0xff, 0xff, 0x14, 0x00, 0x00, 0x00, 0xe4, 0x00, 0x00, 0x00,
  0x03, 0x00, 0x00, 0x00, 0x00, 0x00, 0x00, 0x09, 0xfc, 0x00, 0x00, 0x00,
  0x54, 0xfe, 0xff, 0xff, 0x08, 0x00, 0x00, 0x00, 0x88, 0x00, 0x00, 0x00,
  0x10, 0x00, 0x00, 0x00, 0x00, 0x00, 0x00, 0x00, 0x00, 0x00, 0x00, 0x00,
  0x00, 0x00, 0x00, 0x00, 0x00, 0x00, 0x00, 0x00, 0x00, 0x00, 0x00, 0x00,
  0x00, 0x00, 0x00, 0x00, 0x00, 0x00, 0x00, 0x00, 0x00, 0x00, 0x00, 0x00,
  0x00, 0x00, 0x00, 0x00, 0x00, 0x00, 0x00, 0x00, 0x00, 0x00, 0x00, 0x00,
  0x00, 0x00, 0x00, 0x00, 0x00, 0x00, 0x00, 0x00, 0x00, 0x00, 0x00, 0x00,
  0x00, 0x00, 0x00, 0x00, 0x00, 0x00, 0x00, 0x00, 0x00, 0x00, 0x00, 0x00,
  0x00, 0x00, 0x00, 0x00, 0x00, 0x00, 0x00, 0x00, 0x00, 0x00, 0x00, 0x00,
  0x00, 0x00, 0x00, 0x00, 0x00, 0x00, 0x00, 0x00, 0x00, 0x00, 0x00, 0x00,
  0x00, 0x00, 0x00, 0x00, 0x00, 0x00, 0x00, 0x00, 0x00, 0x00, 0x00, 0x00,
  0x00, 0x00, 0x00, 0x00, 0x00, 0x00, 0x00, 0x00, 0x00, 0x00, 0x00, 0x00,
  0x00, 0x00, 0x00, 0x00, 0x00, 0x00, 0x00, 0x00, 0x00, 0x00, 0x00, 0x00,
  0x10, 0x00, 0x00, 0x00, 0x3e, 0x1b, 0xe0, 0x3a, 0x5c, 0xa9, 0x21, 0x3b,
  0x6e, 0x4e, 0xf0, 0x3a, 0x95, 0x0f, 0xa5, 0x3a, 0x1c, 0x43, 0xf1, 0x3a,
  0xf4, 0x65, 0x08, 0x3b, 0x63, 0xfa, 0xca, 0x3a, 0xee, 0x81, 0xdd, 0x3a,
  0x38, 0x2e, 0xec, 0x3a, 0x03, 0x13, 0xbd, 0x3a, 0x88, 0x83, 0x10, 0x3b,
  0xba, 0x3e, 0xdd, 0x3a, 0x18, 0x33, 0x04, 0x3b, 0x6c, 0xb1, 0xcb, 0x3a,
  0xf9, 0xc1, 0x0f, 0x3b, 0x1b, 0x92, 0xe9, 0x3a, 0x1c, 0x00, 0x00, 0x00,
  0x73, 0x65, 0x71, 0x75, 0x65, 0x6e, 0x74, 0x69, 0x61, 0x6c, 0x5f, 0x31,
  0x2f, 0x63, 0x6f, 0x6e, 0x76, 0x32, 0x64, 0x5f, 0x32, 0x2f, 0x43, 0x6f,
  0x6e, 0x76, 0x32, 0x44, 0x00, 0x00, 0x00, 0x00, 0x04, 0x00, 0x00, 0x00,
  0x10, 0x00, 0x00, 0x00, 0x04, 0x00, 0x00, 0x00, 0x03, 0x00, 0x00, 0x00,
  0x01, 0x00, 0x00, 0x00, 0x00, 0x00, 0x0e, 0x00, 0x18, 0x00, 0x14, 0x00,
  0x13, 0x00, 0x0c, 0x00, 0x08, 0x00, 0x04, 0x00, 0x0e, 0x00, 0x00, 0x00,
  0x18, 0x00, 0x00, 0x00, 0x18, 0x00, 0x00, 0x00, 0x02, 0x00, 0x00, 0x00,
  0x00, 0x00, 0x00, 0x02, 0x30, 0x00, 0x00, 0x00, 0x04, 0x00, 0x04, 0x00,
  0x04, 0x00, 0x00, 0x00, 0x1c, 0x00, 0x00, 0x00, 0x73, 0x65, 0x71, 0x75,
  0x65, 0x6e, 0x74, 0x69, 0x61, 0x6c, 0x5f, 0x31, 0x2f, 0x66, 0x6c, 0x61,
  0x74, 0x74, 0x65, 0x6e, 0x5f, 0x31, 0x2f, 0x43, 0x6f, 0x6e, 0x73, 0x74,
  0x00, 0x00, 0x00, 0x00, 0x01, 0x00, 0x00, 0x00, 0x02, 0x00, 0x00, 0x00,
  0x14, 0x00, 0x1c, 0x00, 0x18, 0x00, 0x17, 0x00, 0x10, 0x00, 0x0c, 0x00,
  0x08, 0x00, 0x00, 0x00, 0x00, 0x00, 0x04, 0x00, 0x14, 0x00, 0x00, 0x00,
  0x18, 0x00, 0x00, 0x00, 0x34, 0x00, 0x00, 0x00, 0x54, 0x00, 0x00, 0x00,
  0x01, 0x00, 0x00, 0x00, 0x00, 0x00, 0x00, 0x09, 0x5c, 0x00, 0x00, 0x00,
  0x04, 0x00, 0x00, 0x00, 0xff, 0xff, 0xff, 0xff, 0x14, 0x00, 0x00, 0x00,
  0x06, 0x00, 0x00, 0x00, 0x01, 0x00, 0x00, 0x00, 0x0c, 0x00, 0x0c, 0x00,
  0x00, 0x00, 0x00, 0x00, 0x08, 0x00, 0x04, 0x00, 0x0c, 0x00, 0x00, 0x00,
  0x08, 0x00, 0x00, 0x00, 0x14, 0x00, 0x00, 0x00, 0x01, 0x00, 0x00, 0x00,
  0xa8, 0xff, 0xff, 0xff, 0xff, 0xff, 0xff, 0xff, 0x00, 0x00, 0x00, 0x00,
  0x01, 0x00, 0x00, 0x00, 0xc7, 0xad, 0x3a, 0x40, 0x0e, 0x00, 0x00, 0x00,
  0x63, 0x6f, 0x6e, 0x76, 0x32, 0x64, 0x5f, 0x32, 0x5f, 0x69, 0x6e, 0x70,
  0x75, 0x74, 0x00, 0x00, 0x04, 0x00, 0x00, 0x00, 0x01, 0x00, 0x00, 0x00,
  0x14, 0x00, 0x00, 0x00, 0x06, 0x00, 0x00, 0x00, 0x01, 0x00, 0x00, 0x00,
  0x05, 0x00, 0x00, 0x00, 0x68, 0x00, 0x00, 0x00, 0x48, 0x00, 0x00, 0x00,
  0x38, 0x00, 0x00, 0x00, 0x18, 0x00, 0x00, 0x00, 0x04, 0x00, 0x00, 0x00,
  0xb8, 0xff, 0xff, 0xff, 0x19, 0x00, 0x00, 0x00, 0x02, 0x00, 0x00, 0x00,
  0x00, 0x00, 0x00, 0x19, 0xc8, 0xff, 0xff, 0xff, 0x09, 0x00, 0x00, 0x00,
  0x04, 0x00, 0x00, 0x00, 0x00, 0x00, 0x00, 0x09, 0x0c, 0x00, 0x0c, 0x00,
  0x0b, 0x00, 0x00, 0x00, 0x00, 0x00, 0x04, 0x00, 0x0c, 0x00, 0x00, 0x00,
  0x16, 0x00, 0x00, 0x00, 0x00, 0x00, 0x00, 0x16, 0xf0, 0xff, 0xff, 0xff,
  0x11, 0x00, 0x00, 0x00, 0x02, 0x00, 0x00, 0x00, 0x00, 0x00, 0x00, 0x11,
  0x0c, 0x00, 0x10, 0x00, 0x0f, 0x00, 0x00, 0x00, 0x08, 0x00, 0x04, 0x00,
  0x0c, 0x00, 0x00, 0x00, 0x03, 0x00, 0x00, 0x00, 0x03, 0x00, 0x00, 0x00,
  0x00, 0x00, 0x00, 0x03
};
unsigned int g_model_len = 7144;
