unsigned char g_model[] = {
  0x1c, 0x00, 0x00, 0x00, 0x54, 0x46, 0x4c, 0x33, 0x14, 0x00, 0x20, 0x00,
  0x1c, 0x00, 0x18, 0x00, 0x14, 0x00, 0x10, 0x00, 0x0c, 0x00, 0x00, 0x00,
  0x08, 0x00, 0x04, 0x00, 0x14, 0x00, 0x00, 0x00, 0x1c, 0x00, 0x00, 0x00,
  0x1c, 0x00, 0x00, 0x00, 0x4c, 0x00, 0x00, 0x00, 0x88, 0x09, 0x00, 0x00,
  0x98, 0x09, 0x00, 0x00, 0xd8, 0x18, 0x00, 0x00, 0x03, 0x00, 0x00, 0x00,
  0x00, 0x00, 0x00, 0x00, 0x01, 0x00, 0x00, 0x00, 0x0c, 0x00, 0x00, 0x00,
  0x08, 0x00, 0x0c, 0x00, 0x08, 0x00, 0x04, 0x00, 0x08, 0x00, 0x00, 0x00,
  0x13, 0x00, 0x00, 0x00, 0x04, 0x00, 0x00, 0x00, 0x13, 0x00, 0x00, 0x00,
  0x6d, 0x69, 0x6e, 0x5f, 0x72, 0x75, 0x6e, 0x74, 0x69, 0x6d, 0x65, 0x5f,
  0x76, 0x65, 0x72, 0x73, 0x69, 0x6f, 0x6e, 0x00, 0x14, 0x00, 0x00, 0x00,
  0x38, 0x09, 0x00, 0x00, 0x30, 0x09, 0x00, 0x00, 0x18, 0x09, 0x00, 0x00,
  0x48, 0x08, 0x00, 0x00, 0xf8, 0x07, 0x00, 0x00, 0xe8, 0x03, 0x00, 0x00,
  0x98, 0x03, 0x00, 0x00, 0x88, 0x01, 0x00, 0x00, 0x38, 0x01, 0x00, 0x00,
  0x98, 0x00, 0x00, 0x00, 0x64, 0x00, 0x00, 0x00, 0x5c, 0x00, 0x00, 0x00,
  0x54, 0x00, 0x00, 0x00, 0x4c, 0x00, 0x00, 0x00, 0x44, 0x00, 0x00, 0x00,
  0x3c, 0x00, 0x00, 0x00, 0x34, 0x00, 0x00, 0x00, 0x2c, 0x00, 0x00, 0x00,
  0x24, 0x00, 0x00, 0x00, 0x04, 0x00, 0x00, 0x00, 0x86, 0xf6, 0xff, 0xff,
  0x04, 0x00, 0x00, 0x00, 0x10, 0x00, 0x00, 0x00, 0x31, 0x2e, 0x31, 0x34,
  0x2e, 0x30, 0x00, 0x00, 0x00, 0x00, 0x00, 0x00, 0x00, 0x00, 0x00, 0x00,
  0xa4, 0xe8, 0xff, 0xff, 0xa8, 0xe8, 0xff, 0xff, 0xac, 0xe8, 0xff, 0xff,
  0xb0, 0xe8, 0xff, 0xff, 0xb4, 0xe8, 0xff, 0xff, 0xb8, 0xe8, 0xff, 0xff,
  0xbc, 0xe8, 0xff, 0xff, 0xc0, 0xe8, 0xff, 0xff, 0xc2, 0xf6, 0xff, 0xff,
  0x04, 0x00, 0x00, 0x00, 0x24, 0x00, 0x00, 0x00, 0xd9, 0xff, 0xff, 0xff,
  0x3b, 0x00, 0x00, 0x00, 0x99, 0xff, 0xff, 0xff, 0x96, 0xff, 0xff, 0xff,
  0xc4, 0xff, 0xff, 0xff, 0x6c, 0xff, 0xff, 0xff, 0x00, 0x00, 0x00, 0x00,
  0x20, 0x00, 0x00, 0x00, 0x55, 0x00, 0x00, 0x00, 0xf2, 0xf6, 0xff, 0xff,
  0x04, 0x00, 0x00, 0x00, 0x90, 0x00, 0x00, 0x00, 0xfd, 0xfc, 0x12, 0xfb,
  0x0d, 0x02, 0xff, 0xff, 0x0e, 0x1c, 0xe8, 0x06, 0x08, 0x08, 0xf4, 0xf2,
  0x06, 0xf3, 0x0f, 0x07, 0x09, 0x00, 0x0b, 0xfe, 0x03, 0x04, 0xf9, 0xf6,
  0xfa, 0xfd, 0xed, 0xf4, 0x81, 0x03, 0xad, 0xaf, 0xcd, 0x91, 0xd7, 0xdf,
  0xb6, 0xf4, 0xef, 0xc4, 0xea, 0xd3, 0xf6, 0xbe, 0x0a, 0xf3, 0xfa, 0x07,
  0x00, 0x00, 0xfd, 0xf2, 0xfc, 0x03, 0x0a, 0x0c, 0x0b, 0x0a, 0xf3, 0x06,
  0xfa, 0xf9, 0xeb, 0xe6, 0x0d, 0xf1, 0xe5, 0xf3, 0x10, 0xfd, 0xf4, 0x0c,
  0xaf, 0xfb, 0x0c, 0x06, 0xf5, 0x0a, 0x03, 0x0a, 0xfd, 0x06, 0x0f, 0xfe,
  0x11, 0xf0, 0x03, 0xfa, 0xf5, 0x0a, 0xfc, 0xf5, 0xf0, 0xff, 0x0b, 0x09,
  0xf2, 0xec, 0x0c, 0x06, 0x0f, 0xf7, 0x05, 0xeb, 0xe3, 0xff, 0xff, 0xf3,
  0x0f, 0xf0, 0x08, 0x07, 0xf9, 0xf7, 0xfb, 0xfe, 0x0f, 0xf8, 0xf9, 0x02,
  0xf7, 0xff, 0xf3, 0x05, 0x0a, 0xfc, 0x03, 0xfb, 0x03, 0xff, 0xfd, 0xfa,
  0x0f, 0xf8, 0xf6, 0x03, 0xf4, 0xf3, 0xf8, 0x00, 0x8e, 0xf7, 0xff, 0xff,
  0x04, 0x00, 0x00, 0x00, 0x40, 0x00, 0x00, 0x00, 0xa6, 0x00, 0x00, 0x00,
  0x5a, 0xff, 0xff, 0xff, 0x4f, 0x00, 0x00, 0x00, 0x9b, 0xff, 0xff, 0xff,
  0x8e, 0xff, 0xff, 0xff, 0x78, 0x00, 0x00, 0x00, 0xe4, 0xff, 0xff, 0xff,
  0xde, 0xff, 0xff, 0xff, 0xad, 0xff, 0xff, 0xff, 0xed, 0xff, 0xff, 0xff,
  0xcf, 0xff, 0xff, 0xff, 0x01, 0x00, 0x00, 0x00, 0x20, 0x00, 0x00, 0x00,
  0x3a, 0xff, 0xff, 0xff, 0xdb, 0xff, 0xff, 0xff, 0x03, 0x00, 0x00, 0x00,
  0xda, 0xf7, 0xff, 0xff, 0x04, 0x00, 0x00, 0x00, 0x00, 0x02, 0x00, 0x00,
  0xff, 0xd9, 0xf2, 0xff, 0xfc, 0xa2, 0xc4, 0xee, 0xda, 0x11, 0xd9, 0xfe,
  0x06, 0xf9, 0xc8, 0xfa, 0xb3, 0x08, 0x00, 0xe4, 0x30, 0x05, 0xff, 0xf0,
  0x0c, 0xbd, 0xf8, 0x0c, 0x18, 0xdb, 0x09, 0xe8, 0xb6, 0x0f, 0x0e, 0x07,
  0xfd, 0x81, 0x27, 0xf2, 0x0e, 0xad, 0x11, 0x12, 0xe6, 0x07, 0xa3, 0xf3,
  0xd2, 0x07, 0xfa, 0x02, 0xec, 0xf8, 0xfb, 0xfa, 0x02, 0x1c, 0x05, 0xc3,
  0xdb, 0xd9, 0xf2, 0xed, 0xf6, 0xf1, 0x07, 0xdb, 0xf7, 0xe0, 0x05, 0x06,
  0xda, 0x25, 0xdc, 0x1a, 0x0f, 0x05, 0x13, 0xeb, 0xf6, 0xde, 0xce, 0xe0,
  0xf0, 0xec, 0x02, 0xee, 0x16, 0x67, 0x0a, 0x01, 0xf4, 0xd4, 0x25, 0xe4,
  0x06, 0x37, 0x0c, 0x21, 0x01, 0x38, 0x53, 0xb6, 0xfa, 0x14, 0x32, 0x31,
  0x05, 0xfb, 0x48, 0xf8, 0xe4, 0x12, 0xe7, 0xff, 0x1c, 0xfa, 0x01, 0xe5,
  0x28, 0xee, 0x04, 0x16, 0x32, 0x27, 0x03, 0xf2, 0x06, 0xe3, 0x01, 0x03,
  0xfd, 0x04, 0xe6, 0x19, 0x01, 0xc9, 0xfa, 0xe8, 0xf7, 0xfa, 0xe7, 0xf6,
  0xd2, 0x05, 0x10, 0x16, 0xd4, 0x08, 0xf4, 0xff, 0xd9, 0xf7, 0x1a, 0x15,
  0xc3, 0x0b, 0xd7, 0x1d, 0xf9, 0xd1, 0xf3, 0xff, 0xfc, 0x03, 0xe2, 0x46,
  0xf2, 0x0e, 0xf5, 0x00, 0x02, 0x12, 0xe4, 0xf2, 0x1f, 0xe2, 0x01, 0xdf,
  0xe6, 0x04, 0x10, 0xcd, 0xf1, 0x0f, 0xde, 0xdf, 0xd7, 0x1e, 0x0d, 0xcf,
  0xe6, 0x17, 0x1f, 0xe0, 0xff, 0x27, 0x21, 0xf2, 0x3a, 0xf9, 0x13, 0x25,
  0xfd, 0x20, 0x19, 0xf6, 0xcc, 0xe3, 0xfd, 0xff, 0xd3, 0xf5, 0x05, 0xfb,
  0xff, 0xdb, 0x22, 0xf2, 0xe2, 0xed, 0x19, 0xee, 0x15, 0x03, 0x00, 0xe7,
  0x06, 0xe5, 0x12, 0xc0, 0xf7, 0x1d, 0xfc, 0x05, 0x08, 0xfe, 0x2a, 0x18,
  0x09, 0x01, 0xe9, 0xf7, 0xf0, 0xea, 0xfe, 0x0f, 0x02, 0x10, 0x1d, 0x04,
  0x04, 0xe9, 0xf6, 0xf3, 0x24, 0x34, 0x08, 0x1c, 0x0c, 0x35, 0x3e, 0xf4,
  0x07, 0xde, 0x07, 0xf6, 0xff, 0xfc, 0x12, 0x22, 0xe8, 0x20, 0xfe, 0x49,
  0xed, 0x14, 0xfc, 0x27, 0x18, 0xf0, 0xf9, 0x0e, 0x02, 0xd9, 0xeb, 0x28,
  0x09, 0x00, 0xe4, 0xf6, 0x06, 0xe8, 0xe9, 0x00, 0xfa, 0x1c, 0xf4, 0xd1,
  0xfa, 0xfc, 0xff, 0xf3, 0x25, 0xe1, 0xc3, 0xdb, 0xb2, 0xc2, 0x00, 0xe0,
  0xee, 0x3c, 0xf7, 0xfd, 0xf7, 0xc3, 0x07, 0x12, 0x00, 0x1f, 0x18, 0x26,
  0x08, 0xcf, 0x30, 0xfe, 0x09, 0xf2, 0x01, 0xfe, 0x05, 0xfe, 0x35, 0xea,
  0x17, 0xee, 0xf1, 0xe1, 0x12, 0xe8, 0xfc, 0x17, 0x17, 0xe4, 0x13, 0xf4,
  0x19, 0x21, 0xee, 0xde, 0xed, 0xcb, 0xe5, 0x1f, 0xfc, 0x09, 0xc9, 0x28,
  0xf3, 0x2b, 0xe0, 0xad, 0xfe, 0xfb, 0xd0, 0xe6, 0x48, 0x0a, 0x05, 0x26,
  0x18, 0xfd, 0xf9, 0x08, 0xf1, 0x2a, 0xe9, 0x01, 0x16, 0x15, 0xf2, 0x2d,
  0x08, 0xff, 0xe5, 0x02, 0xfe, 0xe7, 0xa3, 0x20, 0x28, 0x1c, 0x00, 0xcd,
  0x02, 0x02, 0xde, 0x09, 0x2e, 0xc2, 0xc7, 0xd3, 0x0a, 0xb2, 0xfa, 0x01,
  0xe0, 0x55, 0xee, 0xe8, 0x1b, 0x10, 0x03, 0x01, 0xf5, 0x11, 0x16, 0xf0,
  0xfe, 0x1c, 0xfc, 0x0a, 0x0f, 0x0f, 0xff, 0xf6, 0xf9, 0x11, 0xec, 0x11,
  0x1e, 0xed, 0x0c, 0xeb, 0x1d, 0x05, 0xf9, 0xf7, 0x04, 0xea, 0xfd, 0xfb,
  0x0c, 0x22, 0xe8, 0xe4, 0xf8, 0xff, 0xfd, 0xe4, 0xfb, 0xe7, 0x0f, 0x05,
  0x10, 0xf8, 0x00, 0x01, 0x06, 0xf5, 0x3f, 0x1d, 0x08, 0xfc, 0xf8, 0x3e,
  0xf7, 0xfc, 0xf7, 0x1a, 0x04, 0x1f, 0xf0, 0x10, 0xf7, 0xfa, 0xf8, 0xf1,
  0x1b, 0xdf, 0xcf, 0x20, 0xfd, 0xe2, 0xc6, 0xf4, 0x02, 0x0c, 0xf5, 0xf2,
  0x03, 0xda, 0xdd, 0x0d, 0xfc, 0x0e, 0xf5, 0x37, 0x37, 0x03, 0xfb, 0xf3,
  0x17, 0xe1, 0xdb, 0x1f, 0x31, 0x09, 0xed, 0x2e, 0xe6, 0xf9, 0xff, 0xff,
  0x04, 0x00, 0x00, 0x00, 0x40, 0x00, 0x00, 0x00, 0x71, 0x00, 0x00, 0x00,
  0x53, 0xff, 0xff, 0xff, 0x59, 0xff, 0xff, 0xff, 0xa9, 0xff, 0xff, 0xff,
  0x39, 0xff, 0xff, 0xff, 0x34, 0xff, 0xff, 0xff, 0xec, 0xff, 0xff, 0xff,
  0x56, 0x00, 0x00, 0x00, 0x0d, 0x00, 0x00, 0x00, 0x7e, 0x00, 0x00, 0x00,
  0x7e, 0xff, 0xff, 0xff, 0xca, 0xff, 0xff, 0xff, 0xd5, 0xff, 0xff, 0xff,
  0x96, 0xff, 0xff, 0xff, 0x4e, 0x00, 0x00, 0x00, 0xc3, 0xff, 0xff, 0xff,
  0x32, 0xfa, 0xff, 0xff, 0x04, 0x00, 0x00, 0x00, 0x00, 0x04, 0x00, 0x00,
  0x02, 0x04, 0x01, 0xe7, 0x2a, 0xd8, 0x06, 0x03, 0x9c, 0xe5, 0x21, 0xe6,
  0xcc, 0xd9, 0x03, 0x86, 0x01, 0xf2, 0x02, 0x04, 0x26, 0x9b, 0x47, 0xfb,
  0xd7, 0xc9, 0x0d, 0xef, 0x02, 0x81, 0x04, 0xac, 0xe8, 0xdb, 0xf1, 0xe4,
  0xbd, 0xd4, 0xb2, 0xc2, 0xe9, 0xe7, 0xde, 0xe4, 0xe0, 0xf5, 0xcf, 0xf2,
  0xce, 0xf4, 0xf4, 0xd6, 0xb8, 0xbf, 0xd4, 0xcf, 0xfe, 0xe9, 0xef, 0x14,
  0xe8, 0xff, 0xcd, 0x06, 0x00, 0xfd, 0xdf, 0x02, 0xe6, 0x06, 0x12, 0xb1,
  0x03, 0xf7, 0x81, 0x53, 0x06, 0xf4, 0xd6, 0xcc, 0x04, 0x39, 0xb0, 0xff,
  0xf5, 0x06, 0xf1, 0xed, 0xc9, 0x01, 0xd6, 0xff, 0xf0, 0x13, 0xef, 0x2b,
  0xf7, 0xe3, 0xe8, 0x21, 0x18, 0x1b, 0x29, 0x2f, 0x14, 0xd2, 0x0e, 0x1b,
  0xca, 0xe2, 0x0f, 0x31, 0xe9, 0xbd, 0xfa, 0xe8, 0x3c, 0x21, 0x1c, 0x03,
  0xf7, 0x1b, 0x1d, 0xa5, 0xf9, 0xa1, 0xf2, 0xc3, 0xfc, 0x0c, 0x57, 0x7f,
  0x15, 0xfb, 0xfd, 0x0c, 0x1c, 0x4d, 0x19, 0x22, 0x2b, 0xff, 0xfc, 0x00,
  0xfc, 0xfb, 0x08, 0x07, 0x89, 0x01, 0x87, 0xe4, 0x1a, 0x30, 0xfd, 0xcd,
  0xff, 0x28, 0xe5, 0xc4, 0xfb, 0xfc, 0xfd, 0x08, 0x1f, 0x2e, 0x04, 0xee,
  0xf7, 0x1b, 0xd7, 0x26, 0xf4, 0x1a, 0xcc, 0xfe, 0xe7, 0x02, 0xea, 0x04,
  0x0c, 0x01, 0x01, 0x8c, 0x1b, 0xf7, 0xcd, 0x22, 0x0f, 0xd6, 0xf7, 0xeb,
  0xf8, 0x17, 0xd2, 0x1e, 0xc7, 0x00, 0x16, 0xa4, 0xff, 0x3b, 0x06, 0x19,
  0xce, 0x13, 0xc4, 0x39, 0xf6, 0x14, 0x81, 0xca, 0x03, 0xf6, 0xf2, 0xb9,
  0xb2, 0x23, 0xda, 0x29, 0xaa, 0xf7, 0xcb, 0xeb, 0x04, 0x28, 0x95, 0x13,
  0x2f, 0xc3, 0x1b, 0xf4, 0xe3, 0x05, 0xdc, 0x3c, 0xd7, 0x15, 0x9e, 0xde,
  0xf5, 0x1a, 0xe2, 0xf2, 0x15, 0xeb, 0x3c, 0x17, 0x39, 0xfc, 0x20, 0x1b,
  0xe4, 0xf7, 0xd8, 0x19, 0xfd, 0xfb, 0x98, 0x21, 0x12, 0x00, 0xc1, 0x08,
  0xfa, 0xb9, 0x0d, 0xf1, 0xdf, 0x0d, 0x0a, 0x15, 0xfb, 0xe8, 0xfb, 0xfa,
  0x02, 0xf9, 0xdf, 0x34, 0x05, 0xee, 0x12, 0xd7, 0xf6, 0xe3, 0x03, 0x1e,
  0x00, 0xea, 0x0b, 0x02, 0x65, 0xf9, 0xf0, 0xf4, 0xf9, 0xfb, 0xf7, 0xc4,
  0x08, 0xd5, 0xfc, 0xfd, 0x02, 0xeb, 0xf0, 0x07, 0xfc, 0xf7, 0xee, 0xef,
  0xf7, 0x0c, 0xc1, 0x52, 0x02, 0x02, 0xd6, 0x81, 0x13, 0xe2, 0x4d, 0x4f,
  0xdd, 0xea, 0xe3, 0xf0, 0xec, 0x4a, 0x09, 0x33, 0x41, 0xdb, 0x0a, 0xee,
  0xfc, 0xf7, 0xea, 0x0e, 0xcc, 0x0f, 0xb2, 0x91, 0xde, 0x3b, 0xcf, 0xf7,
  0xeb, 0x6e, 0xe7, 0x7f, 0xfa, 0xe8, 0xe9, 0x19, 0x47, 0x20, 0x6f, 0x14,
  0xd1, 0x33, 0xe8, 0x1e, 0xf9, 0xbc, 0x02, 0x5c, 0x09, 0x2f, 0x06, 0x04,
  0xe3, 0xdf, 0xef, 0xde, 0xf7, 0x4e, 0xf9, 0x0c, 0x20, 0x30, 0xfb, 0xf0,
  0xf2, 0xef, 0x17, 0x17, 0x02, 0xdc, 0x09, 0x01, 0x03, 0x2c, 0x0d, 0xe4,
  0x1a, 0xee, 0xde, 0xc7, 0x11, 0x2a, 0xfa, 0xdf, 0xfd, 0xf6, 0x00, 0xfb,
  0xfb, 0x0d, 0xde, 0x9c, 0xff, 0xd7, 0xe0, 0xf3, 0x1b, 0x15, 0x04, 0x23,
  0xf3, 0xfc, 0x03, 0xf7, 0xd4, 0x11, 0xd8, 0xba, 0x00, 0x11, 0xee, 0xf6,
  0x07, 0x06, 0xff, 0x21, 0x18, 0x0d, 0xfa, 0x0c, 0xc1, 0x07, 0x0a, 0x81,
  0xfd, 0xd6, 0x0e, 0x1b, 0xdf, 0xb3, 0xb4, 0xf6, 0xa7, 0xc3, 0x0e, 0xda,
  0xeb, 0x01, 0x34, 0x7f, 0xd8, 0xd6, 0xff, 0x1a, 0xfd, 0x2c, 0x05, 0xcb,
  0xb9, 0xe8, 0xb5, 0x08, 0xc6, 0xc2, 0x28, 0x2e, 0x01, 0x01, 0x04, 0x2c,
  0x11, 0x38, 0xd7, 0x37, 0x03, 0xe9, 0xbf, 0x88, 0x97, 0xe0, 0x34, 0x6f,
  0xed, 0xfa, 0xa9, 0xb4, 0x10, 0xed, 0xd5, 0xd6, 0x16, 0xcb, 0xf9, 0xfd,
  0xc3, 0x1e, 0xba, 0x61, 0xee, 0x0f, 0xf0, 0x9d, 0xda, 0xee, 0xcb, 0x1d,
  0xdb, 0xe5, 0xeb, 0xee, 0xf5, 0x1f, 0xfd, 0xff, 0xd8, 0xcd, 0xe2, 0xe4,
  0xf2, 0xb9, 0xcf, 0xe3, 0xfa, 0xff, 0x01, 0xfe, 0x35, 0xab, 0x81, 0x91,
  0xda, 0xe5, 0x08, 0xe3, 0xf7, 0xe4, 0x0d, 0x03, 0x1c, 0xe9, 0x35, 0xe8,
  0xec, 0xbe, 0x02, 0x15, 0x11, 0x44, 0xf9, 0x20, 0xff, 0xe2, 0xeb, 0x02,
  0xd6, 0x4f, 0x2e, 0x13, 0xc2, 0xfc, 0xf3, 0xf3, 0x0a, 0xf3, 0xf3, 0xef,
  0x04, 0x09, 0x15, 0xe7, 0xe5, 0x9c, 0xdb, 0x03, 0xbd, 0xf4, 0x81, 0xfe,
  0xd0, 0xb7, 0xf8, 0xc3, 0x04, 0xf3, 0x07, 0x0a, 0x14, 0xb4, 0xfb, 0x01,
  0xcd, 0xd0, 0xfd, 0xe8, 0x06, 0xa4, 0xfe, 0xdd, 0xfe, 0x07, 0xee, 0xf4,
  0xe9, 0xf5, 0x13, 0xe1, 0xfa, 0xef, 0xd6, 0xed, 0xf4, 0xdd, 0x09, 0xec,
  0xe9, 0xfa, 0xf1, 0xf1, 0xe7, 0x0b, 0x05, 0xe8, 0xeb, 0x12, 0x0e, 0xef,
  0xec, 0xe0, 0xf6, 0x07, 0x07, 0x2c, 0x41, 0xc3, 0xf4, 0xfe, 0x1f, 0xf4,
  0xfc, 0x1c, 0x15, 0xde, 0x02, 0xdd, 0xed, 0xea, 0x07, 0x15, 0xea, 0x00,
  0xe7, 0x0a, 0xf6, 0xf6, 0x91, 0x81, 0xe9, 0xb7, 0xee, 0xad, 0x03, 0xbc,
  0xf5, 0xc3, 0xf6, 0xfe, 0x12, 0x25, 0xee, 0xf9, 0xfe, 0xac, 0xf3, 0xde,
  0xfb, 0xbe, 0xff, 0xc0, 0xf6, 0x14, 0xf7, 0x10, 0xf9, 0xfa, 0x0f, 0xff,
  0xeb, 0xee, 0xd0, 0xe4, 0xe1, 0xe4, 0xe9, 0x11, 0xfc, 0xae, 0x44, 0xd2,
  0xfd, 0x07, 0x07, 0xfe, 0xd4, 0xcb, 0xe7, 0x05, 0x1e, 0x04, 0x14, 0xdc,
  0x0f, 0xd8, 0xfb, 0x0b, 0xfd, 0xea, 0x04, 0x02, 0xe9, 0x09, 0xbe, 0xe9,
  0xff, 0x0f, 0xe0, 0xc5, 0x05, 0x0c, 0xfe, 0x0d, 0x66, 0x28, 0xe4, 0x0e,
  0x0b, 0x0a, 0xd5, 0x0b, 0xf9, 0xe8, 0xf6, 0xf9, 0xf1, 0x98, 0x04, 0xf6,
  0xd7, 0x40, 0x10, 0xf8, 0xec, 0x12, 0xf5, 0xf4, 0x09, 0x81, 0xfe, 0xe5,
  0xfd, 0xdb, 0xf9, 0xcc, 0x18, 0xf8, 0xe9, 0x00, 0x2b, 0x81, 0xff, 0xfa,
  0x0c, 0xcd, 0xf3, 0xf5, 0x01, 0xdb, 0x01, 0x03, 0xef, 0xf2, 0xd4, 0x04,
  0xee, 0xf9, 0x12, 0xca, 0x0c, 0xc9, 0x0e, 0xc4, 0xff, 0xf0, 0x05, 0xfc,
  0x43, 0x04, 0xfe, 0x20, 0x1f, 0xf8, 0xf7, 0xf8, 0xfe, 0x01, 0xfd, 0xc9,
  0x05, 0x1d, 0xcb, 0xfb, 0xf0, 0xf5, 0xde, 0xda, 0xe3, 0xfc, 0x12, 0x14,
  0xfe, 0x18, 0x06, 0x2d, 0xf7, 0xf8, 0xd0, 0xea, 0x00, 0xfc, 0xf3, 0xfe,
  0x09, 0xfc, 0x07, 0xd3, 0x14, 0x08, 0x0b, 0xdd, 0xfb, 0x01, 0x81, 0xf5,
  0x04, 0xfc, 0xfd, 0x00, 0xfa, 0x0a, 0xff, 0xe5, 0xfd, 0xc2, 0x00, 0xe5,
  0xf8, 0xeb, 0x06, 0xfe, 0x05, 0x15, 0xe5, 0x14, 0x01, 0xf6, 0x06, 0xf5,
  0xfc, 0xcd, 0x0d, 0x03, 0xfc, 0x13, 0x01, 0xf4, 0xd9, 0x0e, 0x15, 0xfc,
  0x17, 0x12, 0xfe, 0x00, 0x02, 0xe8, 0x00, 0xf1, 0xeb, 0x07, 0x0e, 0xe7,
  0xfd, 0xef, 0x05, 0xff, 0xf7, 0xeb, 0xe0, 0xc7, 0xf7, 0xcd, 0xe9, 0x00,
  0x3b, 0x01, 0x02, 0xf3, 0xf5, 0xf2, 0x03, 0xfd, 0xf2, 0xfd, 0xf0, 0x82,
  0x00, 0xe4, 0xf0, 0xec, 0x01, 0xd9, 0xff, 0x1d, 0x0b, 0xff, 0xea, 0x0d,
  0xf8, 0xd0, 0xe2, 0xd5, 0x01, 0xeb, 0x01, 0xe2, 0xef, 0xfb, 0xe7, 0x25,
  0xf1, 0xc0, 0x17, 0xc2, 0x81, 0xc8, 0x05, 0x96, 0xf5, 0xde, 0xea, 0x05,
  0xef, 0xeb, 0xe9, 0x0e, 0xf2, 0xda, 0xf1, 0xc8, 0xdf, 0x2e, 0x27, 0xec,
  0xc1, 0x2b, 0xd7, 0x1e, 0xfa, 0x1d, 0xe8, 0xf8, 0xb7, 0x0e, 0xf4, 0xa7,
  0xf0, 0xf7, 0xea, 0x36, 0xc6, 0xf4, 0xd9, 0x19, 0xfe, 0x0e, 0xc0, 0xf8,
  0xf0, 0xde, 0x21, 0xec, 0x09, 0x1b, 0x02, 0x16, 0xcf, 0x2a, 0xcf, 0x03,
  0x11, 0x27, 0x81, 0x0d, 0x05, 0xa9, 0xfc, 0x8f, 0xea, 0x23, 0xcb, 0x40,
  0xd3, 0x09, 0xa3, 0xdd, 0x3e, 0xfe, 0xff, 0xff, 0x04, 0x00, 0x00, 0x00,
  0x40, 0x00, 0x00, 0x00, 0x4c, 0x00, 0x00, 0x00, 0xd6, 0xff, 0xff, 0xff,
  0xaa, 0xff, 0xff, 0xff, 0xca, 0xff, 0xff, 0xff, 0xba, 0xff, 0xff, 0xff,
  0x9b, 0xff, 0xff, 0xff, 0xf5, 0xff, 0xff, 0xff, 0x45, 0xff, 0xff, 0xff,
  0x9c, 0xff, 0xff, 0xff, 0x25, 0x00, 0x00, 0x00, 0x49, 0xff, 0xff, 0xff,
  0x68, 0x00, 0x00, 0x00, 0x92, 0xff, 0xff, 0xff, 0x7d, 0x00, 0x00, 0x00,
  0x8b, 0xfe, 0xff, 0xff, 0x30, 0x00, 0x00, 0x00, 0x8a, 0xfe, 0xff, 0xff,
  0x04, 0x00, 0x00, 0x00, 0xc0, 0x00, 0x00, 0x00, 0xf8, 0x0c, 0x42, 0x7f,
  0xab, 0xc7, 0xee, 0xfe, 0xee, 0x27, 0xf2, 0xca, 0xf3, 0xec, 0xf0, 0x3e,
  0xab, 0x98, 0x45, 0xc6, 0xd3, 0x62, 0x81, 0xf6, 0xd6, 0x0e, 0x7f, 0xd0,
  0xf9, 0x49, 0xf0, 0xf9, 0xce, 0xd9, 0xc0, 0x9b, 0xd8, 0x86, 0xb4, 0x0a,
  0x04, 0x12, 0x75, 0x37, 0x23, 0x8e, 0x81, 0x81, 0x84, 0xbc, 0xb5, 0xee,
  0xb8, 0x0a, 0xda, 0xc6, 0x55, 0xe8, 0xf3, 0x7f, 0x0e, 0xcd, 0x17, 0x02,
  0xa7, 0xe9, 0x05, 0x0d, 0x12, 0xea, 0x7f, 0xe1, 0xb7, 0xc4, 0xee, 0x01,
  0xbd, 0x03, 0xca, 0x1e, 0x12, 0x81, 0x46, 0x09, 0xc8, 0xb3, 0xaa, 0xed,
  0xf8, 0x40, 0x22, 0x05, 0x7f, 0x9c, 0xe9, 0xe2, 0x0f, 0x8d, 0x1e, 0x81,
  0x28, 0xb8, 0x13, 0x37, 0xad, 0x39, 0xd3, 0xd2, 0xf5, 0x2c, 0x7f, 0x0e,
  0xbc, 0x00, 0xff, 0xf4, 0x98, 0xf3, 0xb7, 0x0e, 0xf5, 0x93, 0x36, 0x13,
  0x81, 0x61, 0x2e, 0xac, 0x4a, 0xe9, 0x9c, 0x2e, 0x05, 0xe2, 0x97, 0x14,
  0xc9, 0x8b, 0x17, 0xf9, 0xa0, 0x20, 0xc1, 0x81, 0xce, 0xfa, 0x7e, 0xe1,
  0x45, 0x63, 0x11, 0x81, 0x97, 0x2a, 0xc8, 0x92, 0xe5, 0x49, 0xec, 0x31,
  0xb5, 0x81, 0x42, 0x9a, 0xad, 0x0b, 0xf3, 0xdd, 0x01, 0xfc, 0xf9, 0xfe,
  0xc2, 0xd8, 0xe4, 0x7a, 0xd7, 0xa3, 0x7f, 0xca, 0xf2, 0xf6, 0xc5, 0xe1,
  0x8e, 0xc6, 0x13, 0xd4, 0xf6, 0x2f, 0x7f, 0xf4, 0x56, 0xff, 0xff, 0xff,
  0x04, 0x00, 0x00, 0x00, 0x08, 0x00, 0x00, 0x00, 0xff, 0xff, 0xff, 0xff,
  0x20, 0x00, 0x00, 0x00, 0x6c, 0xf1, 0xff, 0xff, 0x70, 0xf1, 0xff, 0xff,
  0x0f, 0x00, 0x00, 0x00, 0x4d, 0x4c, 0x49, 0x52, 0x20, 0x43, 0x6f, 0x6e,
  0x76, 0x65, 0x72, 0x74, 0x65, 0x64, 0x2e, 0x00, 0x01, 0x00, 0x00, 0x00,
  0x14, 0x00, 0x00, 0x00, 0x00, 0x00, 0x0e, 0x00, 0x18, 0x00, 0x14, 0x00,
  0x10, 0x00, 0x0c, 0x00, 0x08, 0x00, 0x04, 0x00, 0x0e, 0x00, 0x00, 0x00,
  0x14, 0x00, 0x00, 0x00, 0x1c, 0x00, 0x00, 0x00, 0x58, 0x02, 0x00, 0x00,
  0x5c, 0x02, 0x00, 0x00, 0x60, 0x02, 0x00, 0x00, 0x04, 0x00, 0x00, 0x00,
  0x6d, 0x61, 0x69, 0x6e, 0x00, 0x00, 0x00, 0x00, 0x08, 0x00, 0x00, 0x00,
  0xf4, 0x01, 0x00, 0x00, 0x90, 0x01, 0x00, 0x00, 0x40, 0x01, 0x00, 0x00,
  0xf0, 0x00, 0x00, 0x00, 0xc8, 0x00, 0x00, 0x00, 0x78, 0x00, 0x00, 0x00,
  0x40, 0x00, 0x00, 0x00, 0x04, 0x00, 0x00, 0x00, 0x9a, 0xfe, 0xff, 0xff,
  0x1c, 0x00, 0x00, 0x00, 0x00, 0x00, 0x00, 0x09, 0x1c, 0x00, 0x00, 0x00,
  0x20, 0x00, 0x00, 0x00, 0x04, 0x00, 0x00, 0x00, 0x00, 0x00, 0x06, 0x00,
  0x08, 0x00, 0x04, 0x00, 0x06, 0x00, 0x00, 0x00, 0x00, 0x00, 0x80, 0x3f,
  0x01, 0x00, 0x00, 0x00, 0x11, 0x00, 0x00, 0x00, 0x01, 0x00, 0x00, 0x00,
  0x10, 0x00, 0x00, 0x00, 0xd2, 0xfe, 0xff, 0xff, 0x14, 0x00, 0x00, 0x00,
  0x00, 0x00, 0x00, 0x08, 0x10, 0x00, 0x00, 0x00, 0x14, 0x00, 0x00, 0x00,
  0x03, 0x00, 0x00, 0x00, 0x38, 0xf2, 0xff, 0xff, 0x01, 0x00, 0x00, 0x00,
  0x10, 0x00, 0x00, 0x00, 0x03, 0x00, 0x00, 0x00, 0x0f, 0x00, 0x00, 0x00,
  0x08, 0x00, 0x00, 0x00, 0x09, 0x00, 0x00, 0x00, 0x06, 0xff, 0xff, 0xff,
  0x1c, 0x00, 0x00, 0x00, 0x00, 0x00, 0x00, 0x08, 0x1c, 0x00, 0x00, 0x00,
  0x20, 0x00, 0x00, 0x00, 0x03, 0x00, 0x00, 0x00, 0x00, 0x00, 0x06, 0x00,
  0x08, 0x00, 0x07, 0x00, 0x06, 0x00, 0x00, 0x00, 0x00, 0x00, 0x00, 0x01,
  0x01, 0x00, 0x00, 0x00, 0x0f, 0x00, 0x00, 0x00, 0x03, 0x00, 0x00, 0x00,
  0x0e, 0x00, 0x00, 0x00, 0x06, 0x00, 0x00, 0x00, 0x07, 0x00, 0x00, 0x00,
  0x00, 0x00, 0x0a, 0x00, 0x10, 0x00, 0x0c, 0x00, 0x08, 0x00, 0x04, 0x00,
  0x0a, 0x00, 0x00, 0x00, 0x0c, 0x00, 0x00, 0x00, 0x10, 0x00, 0x00, 0x00,
  0x02, 0x00, 0x00, 0x00, 0x01, 0x00, 0x00, 0x00, 0x0e, 0x00, 0x00, 0x00,
  0x02, 0x00, 0x00, 0x00, 0x0d, 0x00, 0x00, 0x00, 0x01, 0x00, 0x00, 0x00,
  0x76, 0xff, 0xff, 0xff, 0x24, 0x00, 0x00, 0x00, 0x00, 0x00, 0x00, 0x05,
  0x30, 0x00, 0x00, 0x00, 0x34, 0x00, 0x00, 0x00, 0x01, 0x00, 0x00, 0x00,
  0x00, 0x00, 0x0e, 0x00, 0x14, 0x00, 0x00, 0x00, 0x10, 0x00, 0x0c, 0x00,
  0x08, 0x00, 0x04, 0x00, 0x0e, 0x00, 0x00, 0x00, 0x03, 0x00, 0x00, 0x00,
  0x01, 0x00, 0x00, 0x00, 0x03, 0x00, 0x00, 0x00, 0x01, 0x00, 0x00, 0x00,
  0x01, 0x00, 0x00, 0x00, 0x0d, 0x00, 0x00, 0x00, 0x01, 0x00, 0x00, 0x00,
  0x0c, 0x00, 0x00, 0x00, 0x62, 0xff, 0xff, 0xff, 0x10, 0x00, 0x00, 0x00,
  0x00, 0x00, 0x00, 0x01, 0x18, 0x00, 0x00, 0x00, 0x1c, 0x00, 0x00, 0x00,
  0x54, 0xff, 0xff, 0xff, 0x00, 0x00, 0x00, 0x01, 0x01, 0x00, 0x00, 0x00,
  0x01, 0x00, 0x00, 0x00, 0x01, 0x00, 0x00, 0x00, 0x0c, 0x00, 0x00, 0x00,
  0x03, 0x00, 0x00, 0x00, 0x0b, 0x00, 0x00, 0x00, 0x04, 0x00, 0x00, 0x00,
  0x05, 0x00, 0x00, 0x00, 0x00, 0x00, 0x0e, 0x00, 0x1a, 0x00, 0x14, 0x00,
  0x10, 0x00, 0x0c, 0x00, 0x0b, 0x00, 0x04, 0x00, 0x0e, 0x00, 0x00, 0x00,
  0x24, 0x00, 0x00, 0x00, 0x00, 0x00, 0x00, 0x05, 0x34, 0x00, 0x00, 0x00,
  0x38, 0x00, 0x00, 0x00, 0x01, 0x00, 0x00, 0x00, 0x00, 0x00, 0x0e, 0x00,
  0x18, 0x00, 0x17, 0x00, 0x10, 0x00, 0x0c, 0x00, 0x08, 0x00, 0x04, 0x00,
  0x0e, 0x00, 0x00, 0x00, 0x03, 0x00, 0x00, 0x00, 0x03, 0x00, 0x00, 0x00,
  0x03, 0x00, 0x00, 0x00, 0x03, 0x00, 0x00, 0x00, 0x00, 0x00, 0x00, 0x01,
  0x01, 0x00, 0x00, 0x00, 0x0b, 0x00, 0x00, 0x00, 0x01, 0x00, 0x00, 0x00,
  0x0a, 0x00, 0x00, 0x00, 0x00, 0x00, 0x0e, 0x00, 0x14, 0x00, 0x00, 0x00,
  0x10, 0x00, 0x0c, 0x00, 0x0b, 0x00, 0x04, 0x00, 0x0e, 0x00, 0x00, 0x00,
  0x1c, 0x00, 0x00, 0x00, 0x00, 0x00, 0x00, 0x01, 0x24, 0x00, 0x00, 0x00,
  0x28, 0x00, 0x00, 0x00, 0x0c, 0x00, 0x10, 0x00, 0x00, 0x00, 0x0c, 0x00,
  0x08, 0x00, 0x07, 0x00, 0x0c, 0x00, 0x00, 0x00, 0x00, 0x00, 0x00, 0x01,
  0x01, 0x00, 0x00, 0x00, 0x01, 0x00, 0x00, 0x00, 0x01, 0x00, 0x00, 0x00,
  0x0a, 0x00, 0x00, 0x00, 0x03, 0x00, 0x00, 0x00, 0x00, 0x00, 0x00, 0x00,
  0x02, 0x00, 0x00, 0x00, 0x03, 0x00, 0x00, 0x00, 0x01, 0x00, 0x00, 0x00,
  0x11, 0x00, 0x00, 0x00, 0x01, 0x00, 0x00, 0x00, 0x00, 0x00, 0x00, 0x00,
  0x12, 0x00, 0x00, 0x00, 0x2c, 0x0c, 0x00, 0x00, 0xcc, 0x0b, 0x00, 0x00,
  0x98, 0x0a, 0x00, 0x00, 0x64, 0x09, 0x00, 0x00, 0x40, 0x08, 0x00, 0x00,
  0x0c, 0x07, 0x00, 0x00, 0xa8, 0x06, 0x00, 0x00, 0x2c, 0x06, 0x00, 0x00,
  0xc0, 0x05, 0x00, 0x00, 0x44, 0x05, 0x00, 0x00, 0x40, 0x04, 0x00, 0x00,
  0xac, 0x03, 0x00, 0x00, 0xb8, 0x02, 0x00, 0x00, 0x24, 0x02, 0x00, 0x00,
  0xa8, 0x01, 0x00, 0x00, 0x04, 0x01, 0x00, 0x00, 0x70, 0x00, 0x00, 0x00,
  0x04, 0x00, 0x00, 0x00, 0x30, 0xf4, 0xff, 0xff, 0x18, 0x00, 0x00, 0x00,
  0x20, 0x00, 0x00, 0x00, 0x40, 0x00, 0x00, 0x00, 0x12, 0x00, 0x00, 0x00,
  0x00, 0x00, 0x00, 0x09, 0x44, 0x00, 0x00, 0x00, 0x02, 0x00, 0x00, 0x00,
  0xff, 0xff, 0xff, 0xff, 0x09, 0x00, 0x00, 0x00, 0x14, 0xf4, 0xff, 0xff,
  0x08, 0x00, 0x00, 0x00, 0x14, 0x00, 0x00, 0x00, 0x01, 0x00, 0x00, 0x00,
  0x80, 0xff, 0xff, 0xff, 0xff, 0xff, 0xff, 0xff, 0x00, 0x00, 0x00, 0x00,
  0x01, 0x00, 0x00, 0x00, 0x00, 0x00, 0x80, 0x3b, 0x08, 0x00, 0x00, 0x00,
  0x49, 0x64, 0x65, 0x6e, 0x74, 0x69, 0x74, 0x79, 0x00, 0x00, 0x00, 0x00,
  0x02, 0x00, 0x00, 0x00, 0x01, 0x00, 0x00, 0x00, 0x09, 0x00, 0x00, 0x00,
  0x98, 0xf4, 0xff, 0xff, 0x18, 0x00, 0x00, 0x00, 0x20, 0x00, 0x00, 0x00,
  0x3c, 0x00, 0x00, 0x00, 0x11, 0x00, 0x00, 0x00, 0x00, 0x00, 0x00, 0x09,
  0x6c, 0x00, 0x00, 0x00, 0x02, 0x00, 0x00, 0x00, 0xff, 0xff, 0xff, 0xff,
  0x09, 0x00, 0x00, 0x00, 0x7c, 0xf4, 0xff, 0xff, 0x08, 0x00, 0x00, 0x00,
  0x10, 0x00, 0x00, 0x00, 0x01, 0x00, 0x00, 0x00, 0x52, 0x00, 0x00, 0x00,
  0x00, 0x00, 0x00, 0x00, 0x01, 0x00, 0x00, 0x00, 0xad, 0xd1, 0x9a, 0x40,
  0x34, 0x00, 0x00, 0x00, 0x73, 0x65, 0x71, 0x75, 0x65, 0x6e, 0x74, 0x69,
  0x61, 0x6c, 0x2f, 0x64, 0x65, 0x6e, 0x73, 0x65, 0x5f, 0x31, 0x2f, 0x4d,
  0x61, 0x74, 0x4d, 0x75, 0x6c, 0x3b, 0x73, 0x65, 0x71, 0x75, 0x65, 0x6e,
  0x74, 0x69, 0x61, 0x6c, 0x2f, 0x64, 0x65, 0x6e, 0x73, 0x65, 0x5f, 0x31,
  0x2f, 0x42, 0x69, 0x61, 0x73, 0x41, 0x64, 0x64, 0x00, 0x00, 0x00, 0x00,
  0x02, 0x00, 0x00, 0x00, 0x01, 0x00, 0x00, 0x00, 0x09, 0x00, 0x00, 0x00,
  0x28, 0xf5, 0xff, 0xff, 0x18, 0x00, 0x00, 0x00, 0x20, 0x00, 0x00, 0x00,
  0x3c, 0x00, 0x00, 0x00, 0x10, 0x00, 0x00, 0x00, 0x00, 0x00, 0x00, 0x09,
  0x7c, 0x00, 0x00, 0x00, 0x02, 0x00, 0x00, 0x00, 0xff, 0xff, 0xff, 0xff,
  0x10, 0x00, 0x00, 0x00, 0x0c, 0xf5, 0xff, 0xff, 0x08, 0x00, 0x00, 0x00,
  0x10, 0x00, 0x00, 0x00, 0x01, 0x00, 0x00, 0x00, 0x80, 0xff, 0xff, 0xff,
  0xff, 0xff, 0xff, 0xff, 0x01, 0x00, 0x00, 0x00, 0x4d, 0xec, 0x81, 0x3f,
  0x46, 0x00, 0x00, 0x00, 0x73, 0x65, 0x71, 0x75, 0x65, 0x6e, 0x74, 0x69,
  0x61, 0x6c, 0x2f, 0x64, 0x65, 0x6e, 0x73, 0x65, 0x2f, 0x4d, 0x61, 0x74,
  0x4d, 0x75, 0x6c, 0x3b, 0x73, 0x65, 0x71, 0x75, 0x65, 0x6e, 0x74, 0x69,
  0x61, 0x6c, 0x2f, 0x64, 0x65, 0x6e, 0x73, 0x65, 0x2f, 0x52, 0x65, 0x6c,
  0x75, 0x3b, 0x73, 0x65, 0x71, 0x75, 0x65, 0x6e, 0x74, 0x69, 0x61, 0x6c,
  0x2f, 0x64, 0x65, 0x6e, 0x73, 0x65, 0x2f, 0x42, 0x69, 0x61, 0x73, 0x41,
  0x64, 0x64, 0x00, 0x00, 0x02, 0x00, 0x00, 0x00, 0x01, 0x00, 0x00, 0x00,
  0x10, 0x00, 0x00, 0x00, 0xc8, 0xf5, 0xff, 0xff, 0x18, 0x00, 0x00, 0x00,
  0x20, 0x00, 0x00, 0x00, 0x40, 0x00, 0x00, 0x00, 0x0f, 0x00, 0x00, 0x00,
  0x00, 0x00, 0x00, 0x09, 0x54, 0x00, 0x00, 0x00, 0x02, 0x00, 0x00, 0x00,
  0xff, 0xff, 0xff, 0xff, 0x20, 0x00, 0x00, 0x00, 0xac, 0xf5, 0xff, 0xff,
  0x08, 0x00, 0x00, 0x00, 0x14, 0x00, 0x00, 0x00, 0x01, 0x00, 0x00, 0x00,
  0x80, 0xff, 0xff, 0xff, 0xff, 0xff, 0xff, 0xff, 0x00, 0x00, 0x00, 0x00,
  0x01, 0x00, 0x00, 0x00, 0xaf, 0xba, 0x70, 0x3f, 0x1a, 0x00, 0x00, 0x00,
  0x73, 0x65, 0x71, 0x75, 0x65, 0x6e, 0x74, 0x69, 0x61, 0x6c, 0x2f, 0x66,
  0x6c, 0x61, 0x74, 0x74, 0x65, 0x6e, 0x2f, 0x52, 0x65, 0x73, 0x68, 0x61,
  0x70, 0x65, 0x00, 0x00, 0x02, 0x00, 0x00, 0x00, 0x01, 0x00, 0x00, 0x00,
  0x20, 0x00, 0x00, 0x00, 0x40, 0xf6, 0xff, 0xff, 0x18, 0x00, 0x00, 0x00,
  0x28, 0x00, 0x00, 0x00, 0x48, 0x00, 0x00, 0x00, 0x0e, 0x00, 0x00, 0x00,
  0x00, 0x00, 0x00, 0x09, 0x64, 0x00, 0x00, 0x00, 0x04, 0x00, 0x00, 0x00,
  0xff, 0xff, 0xff, 0xff, 0x01, 0x00, 0x00, 0x00, 0x02, 0x00, 0x00, 0x00,
  0x10, 0x00, 0x00, 0x00, 0x2c, 0xf6, 0xff, 0xff, 0x08, 0x00, 0x00, 0x00,
  0x14, 0x00, 0x00, 0x00, 0x01, 0x00, 0x00, 0x00, 0x80, 0xff, 0xff, 0xff,
  0xff, 0xff, 0xff, 0xff, 0x00, 0x00, 0x00, 0x00, 0x01, 0x00, 0x00, 0x00,
  0xaf, 0xba, 0x70, 0x3f, 0x22, 0x00, 0x00, 0x00, 0x73, 0x65, 0x71, 0x75,
  0x65, 0x6e, 0x74, 0x69, 0x61, 0x6c, 0x2f, 0x6d, 0x61, 0x78, 0x5f, 0x70,
  0x6f, 0x6f, 0x6c, 0x69, 0x6e, 0x67, 0x32, 0x64, 0x5f, 0x31, 0x2f, 0x4d,
  0x61, 0x78, 0x50, 0x6f, 0x6f, 0x6c, 0x00, 0x00, 0x04, 0x00, 0x00, 0x00,
  0x01, 0x00, 0x00, 0x00, 0x01, 0x00, 0x00, 0x00, 0x02, 0x00, 0x00, 0x00,
  0x10, 0x00, 0x00, 0x00, 0xd0, 0xf6, 0xff, 0xff, 0x18, 0x00, 0x00, 0x00,
  0x28, 0x00, 0x00, 0x00, 0x48, 0x00, 0x00, 0x00, 0x0d, 0x00, 0x00, 0x00,
  0x00, 0x00, 0x00, 0x09, 0xc4, 0x00, 0x00, 0x00, 0x04, 0x00, 0x00, 0x00,
  0xff, 0xff, 0xff, 0xff, 0x03, 0x00, 0x00, 0x00, 0x02, 0x00, 0x00, 0x00,
  0x10, 0x00, 0x00, 0x00, 0xbc, 0xf6, 0xff, 0xff, 0x08, 0x00, 0x00, 0x00,
  0x14, 0x00, 0x00, 0x00, 0x01, 0x00, 0x00, 0x00, 0x80, 0xff, 0xff, 0xff,
  0xff, 0xff, 0xff, 0xff, 0x00, 0x00, 0x00, 0x00, 0x01, 0x00, 0x00, 0x00,
  0xaf, 0xba, 0x70, 0x3f, 0x83, 0x00, 0x00, 0x00, 0x73, 0x65, 0x71, 0x75,
  0x65, 0x6e, 0x74, 0x69, 0x61, 0x6c, 0x2f, 0x63, 0x6f, 0x6e, 0x76, 0x32,
  0x64, 0x5f, 0x31, 0x2f, 0x52, 0x65, 0x6c, 0x75, 0x3b, 0x73, 0x65, 0x71,
  0x75, 0x65, 0x6e, 0x74, 0x69, 0x61, 0x6c, 0x2f, 0x63, 0x6f, 0x6e, 0x76,
  0x32, 0x64, 0x5f, 0x31, 0x2f, 0x42, 0x69, 0x61, 0x73, 0x41, 0x64, 0x64,
  0x3b, 0x73, 0x65, 0x71, 0x75, 0x65, 0x6e, 0x74, 0x69, 0x61, 0x6c, 0x2f,
  0x63, 0x6f, 0x6e, 0x76, 0x32, 0x64, 0x5f, 0x31, 0x2f, 0x43, 0x6f, 0x6e,
  0x76, 0x32, 0x44, 0x3b, 0x73, 0x65, 0x71, 0x75, 0x65, 0x6e, 0x74, 0x69,
  0x61, 0x6c, 0x2f, 0x63, 0x6f, 0x6e, 0x76, 0x32, 0x64, 0x5f, 0x31, 0x2f,
  0x42, 0x69, 0x61, 0x73, 0x41, 0x64, 0x64, 0x2f, 0x52, 0x65, 0x61, 0x64,
  0x56, 0x61, 0x72, 0x69, 0x61, 0x62, 0x6c, 0x65, 0x4f, 0x70, 0x2f, 0x72,
  0x65, 0x73, 0x6f, 0x75, 0x72, 0x63, 0x65, 0x00, 0x04, 0x00, 0x00, 0x00,
  0x01, 0x00, 0x00, 0x00, 0x03, 0x00, 0x00, 0x00, 0x02, 0x00, 0x00, 0x00,
  0x10, 0x00, 0x00, 0x00, 0xc0, 0xf7, 0xff, 0xff, 0x18, 0x00, 0x00, 0x00,
  0x28, 0x00, 0x00, 0x00, 0x48, 0x00, 0x00, 0x00, 0x0c, 0x00, 0x00, 0x00,
  0x00, 0x00, 0x00, 0x09, 0x64, 0x00, 0x00, 0x00, 0x04, 0x00, 0x00, 0x00,
  0xff, 0xff, 0xff, 0xff, 0x03, 0x00, 0x00, 0x00, 0x02, 0x00, 0x00, 0x00,
  0x10, 0x00, 0x00, 0x00, 0xac, 0xf7, 0xff, 0xff, 0x08, 0x00, 0x00, 0x00,
  0x14, 0x00, 0x00, 0x00, 0x01, 0x00, 0x00, 0x00, 0x80, 0xff, 0xff, 0xff,
  0xff, 0xff, 0xff, 0xff, 0x00, 0x00, 0x00, 0x00, 0x01, 0x00, 0x00, 0x00,
  0x56, 0xdd, 0x73, 0x3f, 0x20, 0x00, 0x00, 0x00, 0x73, 0x65, 0x71, 0x75,
  0x65, 0x6e, 0x74, 0x69, 0x61, 0x6c, 0x2f, 0x6d, 0x61, 0x78, 0x5f, 0x70,
  0x6f, 0x6f, 0x6c, 0x69, 0x6e, 0x67, 0x32, 0x64, 0x2f, 0x4d, 0x61, 0x78,
  0x50, 0x6f, 0x6f, 0x6c, 0x00, 0x00, 0x00, 0x00, 0x04, 0x00, 0x00, 0x00,
  0x01, 0x00, 0x00, 0x00, 0x03, 0x00, 0x00, 0x00, 0x02, 0x00, 0x00, 0x00,
  0x10, 0x00, 0x00, 0x00, 0x50, 0xf8, 0xff, 0xff, 0x18, 0x00, 0x00, 0x00,
  0x28, 0x00, 0x00, 0x00, 0x44, 0x00, 0x00, 0x00, 0x0b, 0x00, 0x00, 0x00,
  0x00, 0x00, 0x00, 0x09, 0xd4, 0x00, 0x00, 0x00, 0x04, 0x00, 0x00, 0x00,
  0xff, 0xff, 0xff, 0xff, 0x0a, 0x00, 0x00, 0x00, 0x06, 0x00, 0x00, 0x00,
  0x10, 0x00, 0x00, 0x00, 0x3c, 0xf8, 0xff, 0xff, 0x08, 0x00, 0x00, 0x00,
  0x10, 0x00, 0x00, 0x00, 0x01, 0x00, 0x00, 0x00, 0x80, 0xff, 0xff, 0xff,
  0xff, 0xff, 0xff, 0xff, 0x01, 0x00, 0x00, 0x00, 0x56, 0xdd, 0x73, 0x3f,
  0x96, 0x00, 0x00, 0x00, 0x73, 0x65, 0x71, 0x75, 0x65, 0x6e, 0x74, 0x69,
  0x61, 0x6c, 0x2f, 0x63, 0x6f, 0x6e, 0x76, 0x32, 0x64, 0x2f, 0x52, 0x65,
  0x6c, 0x75, 0x3b, 0x73, 0x65, 0x71, 0x75, 0x65, 0x6e, 0x74, 0x69, 0x61,
  0x6c, 0x2f, 0x63, 0x6f, 0x6e, 0x76, 0x32, 0x64, 0x2f, 0x42, 0x69, 0x61,
  0x73, 0x41, 0x64, 0x64, 0x3b, 0x73, 0x65, 0x71, 0x75, 0x65, 0x6e, 0x74,
  0x69, 0x61, 0x6c, 0x2f, 0x63, 0x6f, 0x6e, 0x76, 0x32, 0x64, 0x5f, 0x31,
  0x2f, 0x43, 0x6f, 0x6e, 0x76, 0x32, 0x44, 0x3b, 0x73, 0x65, 0x71, 0x75,
  0x65, 0x6e, 0x74, 0x69, 0x61, 0x6c, 0x2f, 0x63, 0x6f, 0x6e, 0x76, 0x32,
  0x64, 0x2f, 0x43, 0x6f, 0x6e, 0x76, 0x32, 0x44, 0x3b, 0x73, 0x65, 0x71,
  0x75, 0x65, 0x6e, 0x74, 0x69, 0x61, 0x6c, 0x2f, 0x63, 0x6f, 0x6e, 0x76,
  0x32, 0x64, 0x2f, 0x42, 0x69, 0x61, 0x73, 0x41, 0x64, 0x64, 0x2f, 0x52,
  0x65, 0x61, 0x64, 0x56, 0x61, 0x72, 0x69, 0x61, 0x62, 0x6c, 0x65, 0x4f,
  0x70, 0x2f, 0x72, 0x65, 0x73, 0x6f, 0x75, 0x72, 0x63, 0x65, 0x00, 0x00,
  0x04, 0x00, 0x00, 0x00, 0x01, 0x00, 0x00, 0x00, 0x0a, 0x00, 0x00, 0x00,
  0x06, 0x00, 0x00, 0x00, 0x10, 0x00, 0x00, 0x00, 0xa6, 0xf9, 0xff, 0xff,
  0x14, 0x00, 0x00, 0x00, 0x30, 0x00, 0x00, 0x00, 0x0a, 0x00, 0x00, 0x00,
  0x00, 0x00, 0x00, 0x02, 0x5c, 0x00, 0x00, 0x00, 0x24, 0xf9, 0xff, 0xff,
  0x08, 0x00, 0x00, 0x00, 0x10, 0x00, 0x00, 0x00, 0x01, 0x00, 0x00, 0x00,
  0x00, 0x00, 0x00, 0x00, 0x00, 0x00, 0x00, 0x00, 0x01, 0x00, 0x00, 0x00,
  0x99, 0x7b, 0xd8, 0x3c, 0x32, 0x00, 0x00, 0x00, 0x73, 0x65, 0x71, 0x75,
  0x65, 0x6e, 0x74, 0x69, 0x61, 0x6c, 0x2f, 0x64, 0x65, 0x6e, 0x73, 0x65,
  0x5f, 0x31, 0x2f, 0x42, 0x69, 0x61, 0x73, 0x41, 0x64, 0x64, 0x2f, 0x52,
  0x65, 0x61, 0x64, 0x56, 0x61, 0x72, 0x69, 0x61, 0x62, 0x6c, 0x65, 0x4f,
  0x70, 0x2f, 0x72, 0x65, 0x73, 0x6f, 0x75, 0x72, 0x63, 0x65, 0x00, 0x00,
  0x01, 0x00, 0x00, 0x00, 0x09, 0x00, 0x00, 0x00, 0x1e, 0xfa, 0xff, 0xff,
  0x14, 0x00, 0x00, 0x00, 0x34, 0x00, 0x00, 0x00, 0x09, 0x00, 0x00, 0x00,
  0x00, 0x00, 0x00, 0x09, 0x48, 0x00, 0x00, 0x00, 0x9c, 0xf9, 0xff, 0xff,
  0x08, 0x00, 0x00, 0x00, 0x14, 0x00, 0x00, 0x00, 0x01, 0x00, 0x00, 0x00,
  0x00, 0x00, 0x00, 0x00, 0x00, 0x00, 0x00, 0x00, 0x00, 0x00, 0x00, 0x00,
  0x01, 0x00, 0x00, 0x00, 0x4f, 0x47, 0xd5, 0x3c, 0x19, 0x00, 0x00, 0x00,
  0x73, 0x65, 0x71, 0x75, 0x65, 0x6e, 0x74, 0x69, 0x61, 0x6c, 0x2f, 0x64,
  0x65, 0x6e, 0x73, 0x65, 0x5f, 0x31, 0x2f, 0x4d, 0x61, 0x74, 0x4d, 0x75,
  0x6c, 0x00, 0x00, 0x00, 0x02, 0x00, 0x00, 0x00, 0x09, 0x00, 0x00, 0x00,
  0x10, 0x00, 0x00, 0x00, 0x86, 0xfa, 0xff, 0xff, 0x14, 0x00, 0x00, 0x00,
  0x30, 0x00, 0x00, 0x00, 0x08, 0x00, 0x00, 0x00, 0x00, 0x00, 0x00, 0x02,
  0x5c, 0x00, 0x00, 0x00, 0x04, 0xfa, 0xff, 0xff, 0x08, 0x00, 0x00, 0x00,
  0x10, 0x00, 0x00, 0x00, 0x01, 0x00, 0x00, 0x00, 0x00, 0x00, 0x00, 0x00,
  0x00, 0x00, 0x00, 0x00, 0x01, 0x00, 0x00, 0x00, 0xc6, 0xeb, 0x0f, 0x3c,
  0x30, 0x00, 0x00, 0x00, 0x73, 0x65, 0x71, 0x75, 0x65, 0x6e, 0x74, 0x69,
  0x61, 0x6c, 0x2f, 0x64, 0x65, 0x6e, 0x73, 0x65, 0x2f, 0x42, 0x69, 0x61,
  0x73, 0x41, 0x64, 0x64, 0x2f, 0x52, 0x65, 0x61, 0x64, 0x56, 0x61, 0x72,
  0x69, 0x61, 0x62, 0x6c, 0x65, 0x4f, 0x70, 0x2f, 0x72, 0x65, 0x73, 0x6f,
  0x75, 0x72, 0x63, 0x65, 0x00, 0x00, 0x00, 0x00, 0x01, 0x00, 0x00, 0x00,
  0x10, 0x00, 0x00, 0x00, 0xfe, 0xfa, 0xff, 0xff, 0x14, 0x00, 0x00, 0x00,
  0x30, 0x00, 0x00, 0x00, 0x07, 0x00, 0x00, 0x00, 0x00, 0x00, 0x00, 0x09,
  0x40, 0x00, 0x00, 0x00, 0x7c, 0xfa, 0xff, 0xff, 0x08, 0x00, 0x00, 0x00,
  0x10, 0x00, 0x00, 0x00, 0x01, 0x00, 0x00, 0x00, 0x00, 0x00, 0x00, 0x00,
  0x00, 0x00, 0x00, 0x00, 0x01, 0x00, 0x00, 0x00, 0xfa, 0x0c, 0x19, 0x3c,
  0x17, 0x00, 0x00, 0x00, 0x73, 0x65, 0x71, 0x75, 0x65, 0x6e, 0x74, 0x69,
  0x61, 0x6c, 0x2f, 0x64, 0x65, 0x6e, 0x73, 0x65, 0x2f, 0x4d, 0x61, 0x74,
  0x4d, 0x75, 0x6c, 0x00, 0x02, 0x00, 0x00, 0x00, 0x10, 0x00, 0x00, 0x00,
  0x20, 0x00, 0x00, 0x00, 0x5e, 0xfb, 0xff, 0xff, 0x14, 0x00, 0x00, 0x00,
  0xe8, 0x00, 0x00, 0x00, 0x06, 0x00, 0x00, 0x00, 0x00, 0x00, 0x00, 0x02,
  0x14, 0x01, 0x00, 0x00, 0xdc, 0xfa, 0xff, 0xff, 0x08, 0x00, 0x00, 0x00,
  0x8c, 0x00, 0x00, 0x00, 0x10, 0x00, 0x00, 0x00, 0x00, 0x00, 0x00, 0x00,
  0x00, 0x00, 0x00, 0x00, 0x00, 0x00, 0x00, 0x00, 0x00, 0x00, 0x00, 0x00,
  0x00, 0x00, 0x00, 0x00, 0x00, 0x00, 0x00, 0x00, 0x00, 0x00, 0x00, 0x00,
  0x00, 0x00, 0x00, 0x00, 0x00, 0x00, 0x00, 0x00, 0x00, 0x00, 0x00, 0x00,
  0x00, 0x00, 0x00, 0x00, 0x00, 0x00, 0x00, 0x00, 0x00, 0x00, 0x00, 0x00,
  0x00, 0x00, 0x00, 0x00, 0x00, 0x00, 0x00, 0x00, 0x00, 0x00, 0x00, 0x00,
  0x00, 0x00, 0x00, 0x00, 0x00, 0x00, 0x00, 0x00, 0x00, 0x00, 0x00, 0x00,
  0x00, 0x00, 0x00, 0x00, 0x00, 0x00, 0x00, 0x00, 0x00, 0x00, 0x00, 0x00,
  0x00, 0x00, 0x00, 0x00, 0x00, 0x00, 0x00, 0x00, 0x00, 0x00, 0x00, 0x00,
  0x00, 0x00, 0x00, 0x00, 0x00, 0x00, 0x00, 0x00, 0x00, 0x00, 0x00, 0x00,
  0x00, 0x00, 0x00, 0x00, 0x00, 0x00, 0x00, 0x00, 0x00, 0x00, 0x00, 0x00,
  0x00, 0x00, 0x00, 0x00, 0x00, 0x00, 0x00, 0x00, 0x10, 0x00, 0x00, 0x00,
  0x43, 0xab, 0xd4, 0x3b, 0x46, 0xcb, 0xc5, 0x3b, 0xf0, 0xc6, 0xbc, 0x3b,
  0xa1, 0x99, 0x9e, 0x3b, 0xa8, 0x3f, 0xed, 0x3b, 0x28, 0x7d, 0x95, 0x3b,
  0xc4, 0x68, 0x05, 0x3c, 0x83, 0x37, 0x91, 0x3b, 0x9a, 0xd3, 0x9e, 0x3b,
  0x42, 0xd5, 0x04, 0x3c, 0x97, 0xb1, 0xd7, 0x3b, 0x3e, 0x55, 0xf3, 0x3b,
  0xe8, 0x6f, 0xe1, 0x3b, 0x3b, 0xb8, 0x30, 0x3c, 0xba, 0x1b, 0xfa, 0x3b,
  0x05, 0xae, 0xc6, 0x3b, 0x33, 0x00, 0x00, 0x00, 0x73, 0x65, 0x71, 0x75,
  0x65, 0x6e, 0x74, 0x69, 0x61, 0x6c, 0x2f, 0x63, 0x6f, 0x6e, 0x76, 0x32,
  0x64, 0x5f, 0x31, 0x2f, 0x42, 0x69, 0x61, 0x73, 0x41, 0x64, 0x64, 0x2f,
  0x52, 0x65, 0x61, 0x64, 0x56, 0x61, 0x72, 0x69, 0x61, 0x62, 0x6c, 0x65,
  0x4f, 0x70, 0x2f, 0x72, 0x65, 0x73, 0x6f, 0x75, 0x72, 0x63, 0x65, 0x00,
  0x01, 0x00, 0x00, 0x00, 0x10, 0x00, 0x00, 0x00, 0x8e, 0xfc, 0xff, 0xff,
  0x14, 0x00, 0x00, 0x00, 0xe4, 0x00, 0x00, 0x00, 0x05, 0x00, 0x00, 0x00,
  0x00, 0x00, 0x00, 0x09, 0xf8, 0x00, 0x00, 0x00, 0x0c, 0xfc, 0xff, 0xff,
  0x08, 0x00, 0x00, 0x00, 0x88, 0x00, 0x00, 0x00, 0x10, 0x00, 0x00, 0x00,
  0x00, 0x00, 0x00, 0x00, 0x00, 0x00, 0x00, 0x00, 0x00, 0x00, 0x00, 0x00,
  0x00, 0x00, 0x00, 0x00, 0x00, 0x00, 0x00, 0x00, 0x00, 0x00, 0x00, 0x00,
  0x00, 0x00, 0x00, 0x00, 0x00, 0x00, 0x00, 0x00, 0x00, 0x00, 0x00, 0x00,
  0x00, 0x00, 0x00, 0x00, 0x00, 0x00, 0x00, 0x00, 0x00, 0x00, 0x00, 0x00,
  0x00, 0x00, 0x00, 0x00, 0x00, 0x00, 0x00, 0x00, 0x00, 0x00, 0x00, 0x00,
  0x00, 0x00, 0x00, 0x00, 0x00, 0x00, 0x00, 0x00, 0x00, 0x00, 0x00, 0x00,
  0x00, 0x00, 0x00, 0x00, 0x00, 0x00, 0x00, 0x00, 0x00, 0x00, 0x00, 0x00,
  0x00, 0x00, 0x00, 0x00, 0x00, 0x00, 0x00, 0x00, 0x00, 0x00, 0x00, 0x00,
  0x00, 0x00, 0x00, 0x00, 0x00, 0x00, 0x00, 0x00, 0x00, 0x00, 0x00, 0x00,
  0x00, 0x00, 0x00, 0x00, 0x00, 0x00, 0x00, 0x00, 0x00, 0x00, 0x00, 0x00,
  0x00, 0x00, 0x00, 0x00, 0x00, 0x00, 0x00, 0x00, 0x10, 0x00, 0x00, 0x00,
  0x84, 0x40, 0xdf, 0x3b, 0x08, 0xa3, 0xcf, 0x3b, 0xd3, 0x2b, 0xc6, 0x3b,
  0x15, 0x7e, 0xa6, 0x3b, 0x0a, 0x0e, 0xf9, 0x3b, 0x8a, 0xed, 0x9c, 0x3b,
  0x4e, 0x0c, 0x0c, 0x3c, 0x79, 0x71, 0x98, 0x3b, 0xf1, 0xba, 0xa6, 0x3b,
  0x75, 0x71, 0x0b, 0x3c, 0x60, 0x6d, 0xe2, 0x3b, 0x22, 0x71, 0xff, 0x3b,
  0xd1, 0xa7, 0xec, 0x3b, 0x84, 0x83, 0x39, 0x3c, 0xf7, 0x46, 0x03, 0x3c,
  0x10, 0x91, 0xd0, 0x3b, 0x1a, 0x00, 0x00, 0x00, 0x73, 0x65, 0x71, 0x75,
  0x65, 0x6e, 0x74, 0x69, 0x61, 0x6c, 0x2f, 0x63, 0x6f, 0x6e, 0x76, 0x32,
  0x64, 0x5f, 0x31, 0x2f, 0x43, 0x6f, 0x6e, 0x76, 0x32, 0x44, 0x00, 0x00,
  0x04, 0x00, 0x00, 0x00, 0x10, 0x00, 0x00, 0x00, 0x04, 0x00, 0x00, 0x00,
  0x01, 0x00, 0x00, 0x00, 0x10, 0x00, 0x00, 0x00, 0xae, 0xfd, 0xff, 0xff,
  0x14, 0x00, 0x00, 0x00, 0xe8, 0x00, 0x00, 0x00, 0x04, 0x00, 0x00, 0x00,
  0x00, 0x00, 0x00, 0x02, 0x14, 0x01, 0x00, 0x00, 0x2c, 0xfd, 0xff, 0xff,
  0x08, 0x00, 0x00, 0x00, 0x8c, 0x00, 0x00, 0x00, 0x10, 0x00, 0x00, 0x00,
  0x00, 0x00, 0x00, 0x00, 0x00, 0x00, 0x00, 0x00, 0x00, 0x00, 0x00, 0x00,
  0x00, 0x00, 0x00, 0x00, 0x00, 0x00, 0x00, 0x00, 0x00, 0x00, 0x00, 0x00,
  0x00, 0x00, 0x00, 0x00, 0x00, 0x00, 0x00, 0x00, 0x00, 0x00, 0x00, 0x00,
  0x00, 0x00, 0x00, 0x00, 0x00, 0x00, 0x00, 0x00, 0x00, 0x00, 0x00, 0x00,
  0x00, 0x00, 0x00, 0x00, 0x00, 0x00, 0x00, 0x00, 0x00, 0x00, 0x00, 0x00,
  0x00, 0x00, 0x00, 0x00, 0x00, 0x00, 0x00, 0x00, 0x00, 0x00, 0x00, 0x00,
  0x00, 0x00, 0x00, 0x00, 0x00, 0x00, 0x00, 0x00, 0x00, 0x00, 0x00, 0x00,
  0x00, 0x00, 0x00, 0x00, 0x00, 0x00, 0x00, 0x00, 0x00, 0x00, 0x00, 0x00,
  0x00, 0x00, 0x00, 0x00, 0x00, 0x00, 0x00, 0x00, 0x00, 0x00, 0x00, 0x00,
  0x00, 0x00, 0x00, 0x00, 0x00, 0x00, 0x00, 0x00, 0x00, 0x00, 0x00, 0x00,
  0x00, 0x00, 0x00, 0x00, 0x00, 0x00, 0x00, 0x00, 0x00, 0x00, 0x00, 0x00,
  0x10, 0x00, 0x00, 0x00, 0x00, 0x0f, 0x94, 0x3b, 0x95, 0xe9, 0xce, 0x3b,
  0x90, 0x13, 0xcf, 0x3b, 0x29, 0x42, 0x9b, 0x3b, 0x27, 0x8b, 0xd4, 0x3b,
  0xcc, 0xa8, 0x04, 0x3c, 0xcb, 0xf4, 0x1c, 0x3c, 0x1e, 0xe2, 0xa5, 0x3b,
  0x1b, 0x9d, 0xf0, 0x3b, 0x71, 0x65, 0x03, 0x3c, 0x96, 0x9a, 0xcb, 0x3b,
  0x07, 0x1f, 0x85, 0x3c, 0x4a, 0xb5, 0xa8, 0x3b, 0x5a, 0x73, 0x11, 0x3c,
  0x9c, 0xb4, 0xb4, 0x3b, 0xf1, 0xe8, 0x04, 0x3c, 0x31, 0x00, 0x00, 0x00,
  0x73, 0x65, 0x71, 0x75, 0x65, 0x6e, 0x74, 0x69, 0x61, 0x6c, 0x2f, 0x63,
  0x6f, 0x6e, 0x76, 0x32, 0x64, 0x2f, 0x42, 0x69, 0x61, 0x73, 0x41, 0x64,
  0x64, 0x2f, 0x52, 0x65, 0x61, 0x64, 0x56, 0x61, 0x72, 0x69, 0x61, 0x62,
  0x6c, 0x65, 0x4f, 0x70, 0x2f, 0x72, 0x65, 0x73, 0x6f, 0x75, 0x72, 0x63,
  0x65, 0x00, 0x00, 0x00, 0x01, 0x00, 0x00, 0x00, 0x10, 0x00, 0x00, 0x00,
  0xde, 0xfe, 0xff, 0xff, 0x14, 0x00, 0x00, 0x00, 0xe4, 0x00, 0x00, 0x00,
  0x03, 0x00, 0x00, 0x00, 0x00, 0x00, 0x00, 0x09, 0xf8, 0x00, 0x00, 0x00,
  0x5c, 0xfe, 0xff, 0xff, 0x08, 0x00, 0x00, 0x00, 0x88, 0x00, 0x00, 0x00,
  0x10, 0x00, 0x00, 0x00, 0x00, 0x00, 0x00, 0x00, 0x00, 0x00, 0x00, 0x00,
  0x00, 0x00, 0x00, 0x00, 0x00, 0x00, 0x00, 0x00, 0x00, 0x00, 0x00, 0x00,
  0x00, 0x00, 0x00, 0x00, 0x00, 0x00, 0x00, 0x00, 0x00, 0x00, 0x00, 0x00,
  0x00, 0x00, 0x00, 0x00, 0x00, 0x00, 0x00, 0x00, 0x00, 0x00, 0x00, 0x00,
  0x00, 0x00, 0x00, 0x00, 0x00, 0x00, 0x00, 0x00, 0x00, 0x00, 0x00, 0x00,
  0x00, 0x00, 0x00, 0x00, 0x00, 0x00, 0x00, 0x00, 0x00, 0x00, 0x00, 0x00,
  0x00, 0x00, 0x00, 0x00, 0x00, 0x00, 0x00, 0x00, 0x00, 0x00, 0x00, 0x00,
  0x00, 0x00, 0x00, 0x00, 0x00, 0x00, 0x00, 0x00, 0x00, 0x00, 0x00, 0x00,
  0x00, 0x00, 0x00, 0x00, 0x00, 0x00, 0x00, 0x00, 0x00, 0x00, 0x00, 0x00,
  0x00, 0x00, 0x00, 0x00, 0x00, 0x00, 0x00, 0x00, 0x00, 0x00, 0x00, 0x00,
  0x00, 0x00, 0x00, 0x00, 0x00, 0x00, 0x00, 0x00, 0x00, 0x00, 0x00, 0x00,
  0x10, 0x00, 0x00, 0x00, 0x0c, 0x4e, 0xd7, 0x3a, 0xd6, 0x71, 0x16, 0x3b,
  0x5c, 0x90, 0x16, 0x3b, 0x59, 0xc6, 0xe1, 0x3a, 0xfe, 0x89, 0x1a, 0x3b,
  0x58, 0xe9, 0x40, 0x3b, 0x62, 0x3e, 0x64, 0x3b, 0xac, 0x39, 0xf1, 0x3a,
  0xda, 0xf2, 0x2e, 0x3b, 0x21, 0x13, 0x3f, 0x3b, 0xfe, 0x09, 0x14, 0x3b,
  0x47, 0x95, 0xc1, 0x3b, 0x4d, 0x55, 0xf5, 0x3a, 0x29, 0x83, 0x53, 0x3b,
  0xc9, 0x63, 0x03, 0x3b, 0xa0, 0x46, 0x41, 0x3b, 0x18, 0x00, 0x00, 0x00,
  0x73, 0x65, 0x71, 0x75, 0x65, 0x6e, 0x74, 0x69, 0x61, 0x6c, 0x2f, 0x63,
  0x6f, 0x6e, 0x76, 0x32, 0x64, 0x2f, 0x43, 0x6f, 0x6e, 0x76, 0x32, 0x44,
  0x00, 0x00, 0x00, 0x00, 0x04, 0x00, 0x00, 0x00, 0x10, 0x00, 0x00, 0x00,
  0x04, 0x00, 0x00, 0x00, 0x03, 0x00, 0x00, 0x00, 0x01, 0x00, 0x00, 0x00,
  0x00, 0x00, 0x0e, 0x00, 0x18, 0x00, 0x14, 0x00, 0x13, 0x00, 0x0c, 0x00,
  0x08, 0x00, 0x04, 0x00, 0x0e, 0x00, 0x00, 0x00, 0x18, 0x00, 0x00, 0x00,
  0x18, 0x00, 0x00, 0x00, 0x02, 0x00, 0x00, 0x00, 0x00, 0x00, 0x00, 0x02,
  0x2c, 0x00, 0x00, 0x00, 0x04, 0x00, 0x04, 0x00, 0x04, 0x00, 0x00, 0x00,
  0x18, 0x00, 0x00, 0x00, 0x73, 0x65, 0x71, 0x75, 0x65, 0x6e, 0x74, 0x69,
  0x61, 0x6c, 0x2f, 0x66, 0x6c, 0x61, 0x74, 0x74, 0x65, 0x6e, 0x2f, 0x43,
  0x6f, 0x6e, 0x73, 0x74, 0x00, 0x00, 0x00, 0x00, 0x01, 0x00, 0x00, 0x00,
  0x02, 0x00, 0x00, 0x00, 0x14, 0x00, 0x1c, 0x00, 0x18, 0x00, 0x17, 0x00,
  0x10, 0x00, 0x0c, 0x00, 0x08, 0x00, 0x00, 0x00, 0x00, 0x00, 0x04, 0x00,
  0x14, 0x00, 0x00, 0x00, 0x18, 0x00, 0x00, 0x00, 0x34, 0x00, 0x00, 0x00,
  0x54, 0x00, 0x00, 0x00, 0x01, 0x00, 0x00, 0x00, 0x00, 0x00, 0x00, 0x09,
  0x5c, 0x00, 0x00, 0x00, 0x04, 0x00, 0x00, 0x00, 0xff, 0xff, 0xff, 0xff,
  0x0a, 0x00, 0x00, 0x00, 0x06, 0x00, 0x00, 0x00, 0x01, 0x00, 0x00, 0x00,
  0x0c, 0x00, 0x0c, 0x00, 0x00, 0x00, 0x00, 0x00, 0x08, 0x00, 0x04, 0x00,
  0x0c, 0x00, 0x00, 0x00, 0x08, 0x00, 0x00, 0x00, 0x14, 0x00, 0x00, 0x00,
  0x01, 0x00, 0x00, 0x00, 0xa4, 0xff, 0xff, 0xff, 0xff, 0xff, 0xff, 0xff,
  0x00, 0x00, 0x00, 0x00, 0x01, 0x00, 0x00, 0x00, 0x1c, 0x0b, 0x30, 0x40,
  0x0c, 0x00, 0x00, 0x00, 0x63, 0x6f, 0x6e, 0x76, 0x32, 0x64, 0x5f, 0x69,
  0x6e, 0x70, 0x75, 0x74, 0x00, 0x00, 0x00, 0x00, 0x04, 0x00, 0x00, 0x00,
  0x01, 0x00, 0x00, 0x00, 0x0a, 0x00, 0x00, 0x00, 0x06, 0x00, 0x00, 0x00,
  0x01, 0x00, 0x00, 0x00, 0x05, 0x00, 0x00, 0x00, 0x68, 0x00, 0x00, 0x00,
  0x48, 0x00, 0x00, 0x00, 0x38, 0x00, 0x00, 0x00, 0x18, 0x00, 0x00, 0x00,
  0x04, 0x00, 0x00, 0x00, 0xb8, 0xff, 0xff, 0xff, 0x19, 0x00, 0x00, 0x00,
  0x02, 0x00, 0x00, 0x00, 0x00, 0x00, 0x00, 0x19, 0xc8, 0xff, 0xff, 0xff,
  0x09, 0x00, 0x00, 0x00, 0x04, 0x00, 0x00, 0x00, 0x00, 0x00, 0x00, 0x09,
  0x0c, 0x00, 0x0c, 0x00, 0x0b, 0x00, 0x00, 0x00, 0x00, 0x00, 0x04, 0x00,
  0x0c, 0x00, 0x00, 0x00, 0x16, 0x00, 0x00, 0x00, 0x00, 0x00, 0x00, 0x16,
  0xf0, 0xff, 0xff, 0xff, 0x11, 0x00, 0x00, 0x00, 0x02, 0x00, 0x00, 0x00,
  0x00, 0x00, 0x00, 0x11, 0x0c, 0x00, 0x10, 0x00, 0x0f, 0x00, 0x00, 0x00,
  0x08, 0x00, 0x04, 0x00, 0x0c, 0x00, 0x00, 0x00, 0x03, 0x00, 0x00, 0x00,
  0x03, 0x00, 0x00, 0x00, 0x00, 0x00, 0x00, 0x03
};
unsigned int g_model_len = 6536;
