unsigned char g_model[] = {
  0x1c, 0x00, 0x00, 0x00, 0x54, 0x46, 0x4c, 0x33, 0x14, 0x00, 0x20, 0x00,
  0x1c, 0x00, 0x18, 0x00, 0x14, 0x00, 0x10, 0x00, 0x0c, 0x00, 0x00, 0x00,
  0x08, 0x00, 0x04, 0x00, 0x14, 0x00, 0x00, 0x00, 0x1c, 0x00, 0x00, 0x00,
  0x1c, 0x00, 0x00, 0x00, 0x4c, 0x00, 0x00, 0x00, 0x88, 0x0b, 0x00, 0x00,
  0x98, 0x0b, 0x00, 0x00, 0x38, 0x1b, 0x00, 0x00, 0x03, 0x00, 0x00, 0x00,
  0x00, 0x00, 0x00, 0x00, 0x01, 0x00, 0x00, 0x00, 0x0c, 0x00, 0x00, 0x00,
  0x08, 0x00, 0x0c, 0x00, 0x08, 0x00, 0x04, 0x00, 0x08, 0x00, 0x00, 0x00,
  0x13, 0x00, 0x00, 0x00, 0x04, 0x00, 0x00, 0x00, 0x13, 0x00, 0x00, 0x00,
  0x6d, 0x69, 0x6e, 0x5f, 0x72, 0x75, 0x6e, 0x74, 0x69, 0x6d, 0x65, 0x5f,
  0x76, 0x65, 0x72, 0x73, 0x69, 0x6f, 0x6e, 0x00, 0x14, 0x00, 0x00, 0x00,
  0x38, 0x0b, 0x00, 0x00, 0x30, 0x0b, 0x00, 0x00, 0x18, 0x0b, 0x00, 0x00,
  0x48, 0x0a, 0x00, 0x00, 0xf8, 0x09, 0x00, 0x00, 0xe8, 0x05, 0x00, 0x00,
  0x98, 0x05, 0x00, 0x00, 0x88, 0x01, 0x00, 0x00, 0x38, 0x01, 0x00, 0x00,
  0x98, 0x00, 0x00, 0x00, 0x64, 0x00, 0x00, 0x00, 0x5c, 0x00, 0x00, 0x00,
  0x54, 0x00, 0x00, 0x00, 0x4c, 0x00, 0x00, 0x00, 0x44, 0x00, 0x00, 0x00,
  0x3c, 0x00, 0x00, 0x00, 0x34, 0x00, 0x00, 0x00, 0x2c, 0x00, 0x00, 0x00,
  0x24, 0x00, 0x00, 0x00, 0x04, 0x00, 0x00, 0x00, 0x86, 0xf4, 0xff, 0xff,
  0x04, 0x00, 0x00, 0x00, 0x10, 0x00, 0x00, 0x00, 0x31, 0x2e, 0x31, 0x34,
  0x2e, 0x30, 0x00, 0x00, 0x00, 0x00, 0x00, 0x00, 0x00, 0x00, 0x00, 0x00,
  0x48, 0xe6, 0xff, 0xff, 0x4c, 0xe6, 0xff, 0xff, 0x50, 0xe6, 0xff, 0xff,
  0x54, 0xe6, 0xff, 0xff, 0x58, 0xe6, 0xff, 0xff, 0x5c, 0xe6, 0xff, 0xff,
  0x60, 0xe6, 0xff, 0xff, 0x64, 0xe6, 0xff, 0xff, 0xc2, 0xf4, 0xff, 0xff,
  0x04, 0x00, 0x00, 0x00, 0x24, 0x00, 0x00, 0x00, 0x00, 0x01, 0x00, 0x00,
  0x2a, 0x01, 0x00, 0x00, 0x81, 0x00, 0x00, 0x00, 0xef, 0xfd, 0xff, 0xff,
  0xaf, 0xfd, 0xff, 0xff, 0xd8, 0xfc, 0xff, 0xff, 0xf9, 0xfd, 0xff, 0xff,
  0x3f, 0x00, 0x00, 0x00, 0x67, 0x01, 0x00, 0x00, 0xf2, 0xf4, 0xff, 0xff,
  0x04, 0x00, 0x00, 0x00, 0x90, 0x00, 0x00, 0x00, 0x00, 0xd1, 0xcd, 0xb0,
  0x36, 0xa9, 0xab, 0x25, 0x8e, 0xe0, 0xd5, 0x81, 0x25, 0xc0, 0xe6, 0x30,
  0x1a, 0xed, 0x0d, 0xcd, 0x07, 0xeb, 0xdb, 0xe1, 0x34, 0x30, 0xe2, 0xed,
  0xe6, 0x21, 0x04, 0xb9, 0x27, 0x10, 0xd5, 0x11, 0x2b, 0x0d, 0xc2, 0xee,
  0x20, 0x27, 0x1e, 0x16, 0xed, 0xe8, 0x27, 0xcf, 0xd2, 0xec, 0xff, 0x22,
  0x9a, 0x36, 0xdd, 0x38, 0x05, 0xc2, 0xec, 0x1e, 0x29, 0xdc, 0xba, 0xb0,
  0xf3, 0x1c, 0x20, 0xa9, 0x21, 0xd8, 0x02, 0x15, 0x31, 0xf7, 0x20, 0xba,
  0x30, 0x07, 0xfc, 0x15, 0x19, 0xe3, 0xc8, 0x0a, 0x9f, 0x21, 0x04, 0xec,
  0x36, 0x31, 0xfb, 0xcc, 0x32, 0x37, 0x00, 0xc7, 0xd7, 0xf6, 0x17, 0x28,
  0xf0, 0xf7, 0xda, 0x31, 0x35, 0x31, 0x30, 0x10, 0xe8, 0x32, 0x22, 0xa1,
  0x1a, 0xde, 0x1d, 0xd1, 0xff, 0x22, 0x05, 0xe3, 0x27, 0x09, 0xf0, 0x23,
  0xe0, 0xc1, 0xe0, 0x0b, 0x15, 0xc9, 0xfb, 0x9b, 0x98, 0xe3, 0xf5, 0xb7,
  0xce, 0xab, 0x1c, 0x2e, 0xab, 0xd0, 0x31, 0xcd, 0x8e, 0xf5, 0xff, 0xff,
  0x04, 0x00, 0x00, 0x00, 0x40, 0x00, 0x00, 0x00, 0xb6, 0xff, 0xff, 0xff,
  0x00, 0x00, 0x00, 0x00, 0xec, 0xff, 0xff, 0xff, 0x1a, 0x00, 0x00, 0x00,
  0x5f, 0x00, 0x00, 0x00, 0xa7, 0xff, 0xff, 0xff, 0xd3, 0xff, 0xff, 0xff,
  0xf4, 0xff, 0xff, 0xff, 0xd9, 0xff, 0xff, 0xff, 0x10, 0x00, 0x00, 0x00,
  0xd5, 0xff, 0xff, 0xff, 0x66, 0x00, 0x00, 0x00, 0x3e, 0xff, 0xff, 0xff,
  0xbf, 0xff, 0xff, 0xff, 0xf8, 0xff, 0xff, 0xff, 0xf2, 0xff, 0xff, 0xff,
  0xda, 0xf5, 0xff, 0xff, 0x04, 0x00, 0x00, 0x00, 0x00, 0x04, 0x00, 0x00,
  0xe7, 0xf3, 0x03, 0xee, 0xff, 0xe6, 0xee, 0xd7, 0xcf, 0xe9, 0x22, 0x0e,
  0xfa, 0xc0, 0xf6, 0xfa, 0xff, 0xf4, 0x0a, 0xf7, 0xdf, 0xe4, 0xc3, 0x05,
  0xd3, 0x08, 0xd0, 0xff, 0xd2, 0xf1, 0x03, 0xe4, 0x10, 0xfa, 0xde, 0xe4,
  0xcb, 0xf8, 0xed, 0xe6, 0x13, 0x04, 0x0d, 0xde, 0x1f, 0xe1, 0xd1, 0xda,
  0xf9, 0x09, 0xf7, 0xf6, 0xcc, 0x0e, 0xdc, 0x12, 0xcb, 0xec, 0x08, 0x20,
  0x0f, 0xf2, 0xe0, 0xef, 0xe9, 0xf6, 0x0d, 0xe0, 0xff, 0xcc, 0x06, 0xfc,
  0xc5, 0x03, 0xea, 0x06, 0x0c, 0x01, 0xfb, 0x21, 0xe2, 0xf0, 0x0b, 0x1d,
  0x1f, 0x26, 0x18, 0xcb, 0xf5, 0xec, 0x02, 0x02, 0xee, 0x1c, 0xd5, 0x19,
  0xdd, 0x17, 0x38, 0x12, 0x00, 0xc4, 0xf3, 0x1e, 0xdb, 0x35, 0xf7, 0xf4,
  0xdd, 0xfe, 0xf8, 0xff, 0xd4, 0xec, 0xfc, 0x20, 0xea, 0x0c, 0x17, 0xde,
  0xe1, 0xc3, 0xcf, 0x0d, 0xc4, 0xfc, 0xfd, 0x0a, 0xe1, 0xe2, 0xf3, 0xe4,
  0xe7, 0xe4, 0xfe, 0x1f, 0xde, 0x10, 0x11, 0x15, 0x0d, 0xfb, 0xf9, 0xf4,
  0xe5, 0xe5, 0xfb, 0xf9, 0xe1, 0xc6, 0xf9, 0xe1, 0xf0, 0xf9, 0x00, 0x00,
  0xfa, 0xf5, 0xdf, 0x29, 0xdd, 0x19, 0x05, 0x1f, 0xfe, 0xf2, 0xf0, 0x0c,
  0xfc, 0x22, 0xe3, 0xf1, 0xf8, 0xf6, 0xe9, 0xfc, 0x13, 0xfd, 0xef, 0xf4,
  0xf8, 0x20, 0xf9, 0xc4, 0x0a, 0xe0, 0x0e, 0x22, 0xff, 0x02, 0xd7, 0x1b,
  0x24, 0xf7, 0x30, 0x14, 0xea, 0xec, 0x11, 0xf9, 0xf9, 0xf4, 0xfb, 0xfb,
  0xf0, 0xf5, 0xee, 0x15, 0x00, 0x19, 0xc9, 0x15, 0x3b, 0xf7, 0x03, 0x22,
  0xff, 0xa3, 0x04, 0x11, 0x33, 0xe8, 0x4e, 0x08, 0x1c, 0xe8, 0x22, 0x2d,
  0xde, 0xf8, 0xe0, 0x09, 0xfe, 0x22, 0xc2, 0xe8, 0xdd, 0xeb, 0xf6, 0x2a,
  0x0f, 0xe0, 0xd3, 0x0f, 0x16, 0x04, 0x01, 0x29, 0x14, 0xf0, 0x0d, 0x3b,
  0xcc, 0xef, 0x34, 0xfa, 0x05, 0xd9, 0x30, 0x23, 0xe7, 0x8f, 0x29, 0x25,
  0xea, 0x35, 0xff, 0x0d, 0xf9, 0x0b, 0xff, 0x1e, 0xf2, 0x06, 0x01, 0x0b,
  0xd9, 0xdc, 0x0a, 0xe1, 0xde, 0x13, 0xf1, 0xd2, 0xe5, 0xff, 0xc0, 0x02,
  0x01, 0x04, 0x26, 0x31, 0xe7, 0xcf, 0xec, 0x21, 0xe8, 0x56, 0xda, 0x17,
  0x0c, 0xf2, 0xf9, 0x16, 0xfa, 0xd5, 0x03, 0x15, 0xe4, 0xda, 0x14, 0xd9,
  0xff, 0x1c, 0xa0, 0xf3, 0x00, 0x02, 0xf3, 0x0a, 0x0e, 0x23, 0xc3, 0x03,
  0xf6, 0xff, 0x21, 0x07, 0xf3, 0x42, 0xd9, 0x16, 0x1f, 0x05, 0xf0, 0xca,
  0x09, 0x11, 0xda, 0xd2, 0x16, 0x04, 0x06, 0xfe, 0x0f, 0xe1, 0xe4, 0x21,
  0xe1, 0x4e, 0x01, 0x03, 0x15, 0x25, 0xfe, 0x1a, 0xe8, 0x02, 0xf9, 0x1a,
  0xfd, 0x37, 0x0f, 0x1e, 0x3c, 0xfa, 0xea, 0xe2, 0x00, 0x0c, 0xe5, 0xc3,
  0x19, 0xfe, 0xf2, 0xf2, 0x01, 0x04, 0xeb, 0x19, 0xdb, 0x52, 0x08, 0x13,
  0x06, 0x28, 0xaa, 0xf9, 0x01, 0x20, 0xed, 0x1e, 0xfc, 0xf3, 0xe3, 0x16,
  0x2c, 0x05, 0x01, 0xaf, 0x17, 0x0e, 0x0c, 0xfc, 0xe6, 0x03, 0xf1, 0xf5,
  0x36, 0xaa, 0x0e, 0xde, 0xb5, 0x1a, 0x17, 0x33, 0x2b, 0x00, 0xcc, 0xeb,
  0xf9, 0x11, 0x2d, 0xf3, 0xff, 0x04, 0x08, 0x15, 0x3b, 0xf1, 0xf2, 0xb9,
  0x25, 0x1d, 0x2b, 0xcd, 0xfe, 0xe4, 0xeb, 0x0b, 0x35, 0xbe, 0xef, 0xcf,
  0x8e, 0x28, 0xdb, 0x40, 0x0e, 0xe1, 0x11, 0x2b, 0xba, 0xcf, 0x26, 0x09,
  0xf8, 0xfc, 0xea, 0x09, 0xf5, 0x04, 0xcc, 0x1d, 0xe3, 0xfd, 0x0f, 0x00,
  0x18, 0x00, 0xc6, 0x30, 0xf9, 0x29, 0x28, 0x1e, 0x2a, 0x0f, 0x59, 0x0b,
  0x2e, 0xe1, 0xf5, 0xc3, 0x11, 0xe2, 0x11, 0x32, 0xf3, 0x13, 0xfa, 0xf5,
  0xde, 0xd6, 0xdb, 0xfb, 0xcc, 0xfd, 0x17, 0xfc, 0x37, 0x0b, 0xed, 0x0f,
  0x07, 0x2c, 0x2d, 0x2a, 0x48, 0x0e, 0x4a, 0xd8, 0x22, 0xf8, 0xd1, 0xdc,
  0xe5, 0x4e, 0xfa, 0x00, 0x33, 0x15, 0x1a, 0xff, 0xe1, 0x05, 0xf5, 0xf1,
  0xef, 0x01, 0x03, 0xc2, 0xc4, 0x30, 0x2c, 0x2d, 0x0f, 0xf3, 0xf7, 0xd8,
  0x05, 0x31, 0xf6, 0x24, 0x36, 0xe6, 0xee, 0x0d, 0xdd, 0x34, 0x35, 0x07,
  0x26, 0xf6, 0xfd, 0xd6, 0xf3, 0x02, 0xf3, 0xed, 0xf4, 0xf3, 0x10, 0xe8,
  0xdb, 0x21, 0x24, 0x4e, 0xfa, 0xfc, 0x00, 0xfa, 0xba, 0x30, 0xeb, 0x11,
  0x36, 0x10, 0xff, 0x3b, 0xe5, 0x2e, 0xff, 0x0a, 0x27, 0x15, 0x06, 0xed,
  0xfc, 0x10, 0x01, 0x0c, 0xf6, 0xfe, 0xfd, 0xea, 0xed, 0x1f, 0x18, 0x4d,
  0xe9, 0xf3, 0xdf, 0x02, 0x16, 0xf3, 0x15, 0xee, 0x5e, 0xfa, 0x11, 0x2f,
  0xd3, 0x34, 0x3e, 0xfb, 0x35, 0x27, 0xfb, 0x09, 0xff, 0xfa, 0x01, 0x08,
  0xfc, 0xe1, 0xfb, 0x13, 0xfc, 0x1e, 0x10, 0x40, 0xf7, 0xf7, 0xe0, 0xf4,
  0xd9, 0xfe, 0x0e, 0xeb, 0x1e, 0xe7, 0x57, 0xd0, 0xff, 0xfe, 0xf3, 0x23,
  0xec, 0x35, 0xc4, 0xfb, 0xbd, 0x02, 0xfa, 0x02, 0xf5, 0x01, 0xcb, 0x23,
  0xf0, 0xf8, 0x12, 0x06, 0xd4, 0xcd, 0xfc, 0xfa, 0x28, 0xe6, 0x01, 0x09,
  0x3a, 0xc5, 0x0c, 0xea, 0xee, 0xe8, 0xe8, 0x2f, 0xef, 0xf7, 0xf1, 0xcf,
  0xec, 0xe9, 0xee, 0x23, 0x0d, 0x28, 0xc1, 0x34, 0xf6, 0xef, 0x1b, 0x27,
  0xea, 0x1b, 0x37, 0x00, 0xfa, 0x22, 0x18, 0xf8, 0xf5, 0xd5, 0x0f, 0xd0,
  0x11, 0xce, 0x1d, 0xdc, 0xd5, 0x05, 0xe9, 0x0c, 0x0d, 0xff, 0x23, 0xec,
  0x50, 0x2d, 0xf0, 0x2e, 0xfc, 0xfe, 0xf6, 0x2f, 0x17, 0xdd, 0xc3, 0x10,
  0xf3, 0x25, 0x13, 0x02, 0x15, 0xd3, 0x19, 0x02, 0x11, 0xe0, 0xbd, 0x27,
  0xd9, 0x13, 0xec, 0xd6, 0xfd, 0xfc, 0x22, 0x08, 0x6a, 0x12, 0xda, 0x26,
  0xe8, 0xfb, 0x08, 0x0f, 0x30, 0x9b, 0xf9, 0xf7, 0x81, 0x2e, 0x24, 0xfb,
  0x09, 0x22, 0xb8, 0xea, 0x0b, 0xf7, 0xc5, 0x19, 0x02, 0xeb, 0xf7, 0x12,
  0x23, 0xee, 0xe9, 0xce, 0xdd, 0xf4, 0x0f, 0xea, 0x2a, 0xff, 0xfb, 0xf3,
  0xe6, 0x2c, 0xf9, 0x1b, 0xd8, 0x04, 0x10, 0x15, 0x01, 0x33, 0xa0, 0x0e,
  0x0f, 0x02, 0x28, 0x0a, 0xfb, 0x1f, 0x05, 0x2a, 0x0e, 0x00, 0xeb, 0xca,
  0xd5, 0x0b, 0x11, 0xee, 0x36, 0x04, 0x08, 0xfb, 0xe6, 0x1c, 0xf7, 0x1b,
  0x18, 0x0a, 0x2c, 0x10, 0x0e, 0x2f, 0x10, 0xf5, 0xbd, 0x28, 0x18, 0x0f,
  0x10, 0xd5, 0x05, 0xc2, 0x25, 0xf5, 0xc9, 0xf6, 0xf9, 0xf6, 0x05, 0x1d,
  0x0a, 0x31, 0x10, 0x27, 0xf6, 0x16, 0x21, 0xe3, 0x3f, 0x03, 0x1f, 0x09,
  0x2e, 0x4a, 0xf1, 0xd9, 0xcf, 0x21, 0x5c, 0xcd, 0x13, 0xf2, 0x08, 0x03,
  0x2a, 0xf5, 0xe8, 0xff, 0xdc, 0x03, 0xfc, 0x16, 0xfb, 0x1a, 0x0d, 0x2c,
  0xfe, 0x0c, 0x45, 0xdc, 0x19, 0x02, 0x1a, 0xe1, 0xd6, 0x0a, 0xfa, 0xe6,
  0x4c, 0xee, 0xe3, 0xd6, 0xd9, 0x07, 0xee, 0x0d, 0xd5, 0xef, 0xf5, 0xbc,
  0x03, 0xe1, 0xde, 0xe5, 0x15, 0x46, 0xe0, 0xea, 0xf9, 0xb8, 0xef, 0x13,
  0xf2, 0xf4, 0xeb, 0x00, 0xf7, 0xea, 0x37, 0x13, 0x01, 0xf7, 0x06, 0x27,
  0x07, 0x9c, 0x10, 0xe0, 0xe6, 0xf3, 0x02, 0x30, 0x15, 0x0b, 0xb7, 0x02,
  0xe2, 0x14, 0xd0, 0xe7, 0xf9, 0x21, 0xc8, 0xf1, 0xa6, 0xe7, 0xea, 0xf1,
  0xdf, 0x0f, 0x02, 0x03, 0x13, 0xb3, 0x32, 0x0b, 0xb8, 0xfa, 0x01, 0x32,
  0xf2, 0xf7, 0xe2, 0x12, 0xcf, 0x0e, 0x09, 0xf4, 0xf7, 0xde, 0xf6, 0x0a,
  0xa0, 0x26, 0x23, 0xf4, 0x28, 0xfd, 0xfe, 0x00, 0xdd, 0x25, 0xf8, 0xf0,
  0x07, 0xe1, 0xf0, 0xef, 0xa4, 0x06, 0xfc, 0x2f, 0x30, 0xea, 0xec, 0xff,
  0xe1, 0xd3, 0x16, 0xb4, 0xba, 0xf6, 0xec, 0xe7, 0xe7, 0x32, 0xea, 0x11,
  0x59, 0xe9, 0xa0, 0xff, 0xe6, 0xf9, 0xff, 0xff, 0x04, 0x00, 0x00, 0x00,
  0x40, 0x00, 0x00, 0x00, 0x08, 0x00, 0x00, 0x00, 0x07, 0xff, 0xff, 0xff,
  0x60, 0x00, 0x00, 0x00, 0x69, 0x00, 0x00, 0x00, 0xb6, 0xff, 0xff, 0xff,
  0x6e, 0xff, 0xff, 0xff, 0xec, 0xff, 0xff, 0xff, 0x94, 0xff, 0xff, 0xff,
  0x07, 0x00, 0x00, 0x00, 0x87, 0x00, 0x00, 0x00, 0x03, 0x00, 0x00, 0x00,
  0x90, 0xff, 0xff, 0xff, 0xaf, 0x00, 0x00, 0x00, 0x15, 0xff, 0xff, 0xff,
  0x94, 0xff, 0xff, 0xff, 0xee, 0xff, 0xff, 0xff, 0x32, 0xfa, 0xff, 0xff,
  0x04, 0x00, 0x00, 0x00, 0x00, 0x04, 0x00, 0x00, 0xc4, 0xf6, 0x34, 0xd0,
  0xf5, 0xc3, 0xad, 0xd5, 0xf4, 0x30, 0x8b, 0x3d, 0xc3, 0xe2, 0x06, 0xd1,
  0x9e, 0xe4, 0xe8, 0xed, 0x0d, 0x8a, 0xbe, 0xcb, 0x19, 0x2e, 0xaf, 0x47,
  0xc7, 0x85, 0xff, 0xdc, 0xbf, 0xe0, 0x8a, 0xe1, 0x7f, 0xde, 0x14, 0x38,
  0x0f, 0xde, 0xfd, 0xeb, 0xff, 0x8b, 0x04, 0xde, 0x17, 0xe2, 0xe8, 0x30,
  0xe4, 0x2c, 0x06, 0x3d, 0xe0, 0xee, 0x34, 0x4e, 0x28, 0xc7, 0x06, 0xf5,
  0x0a, 0x3c, 0x0e, 0xbb, 0x0b, 0x01, 0xea, 0x04, 0xa9, 0xac, 0xef, 0xfd,
  0xbc, 0xfd, 0xca, 0xe2, 0xd5, 0x0a, 0xaa, 0xe7, 0x0c, 0xf7, 0xeb, 0x7f,
  0x18, 0x0f, 0x06, 0xf3, 0xde, 0x0a, 0xd6, 0x09, 0x19, 0x06, 0xdf, 0x0a,
  0x10, 0x15, 0xf2, 0x50, 0xe2, 0xe6, 0x09, 0xf0, 0xc7, 0x4b, 0xe0, 0xe1,
  0x05, 0x0f, 0x06, 0xf6, 0x08, 0xf9, 0xe3, 0x09, 0xe9, 0xed, 0xe8, 0xfc,
  0xc3, 0x0c, 0xe0, 0xe3, 0x07, 0xc6, 0x0d, 0xc7, 0x01, 0x09, 0x0c, 0x36,
  0xf8, 0x2f, 0xf1, 0xc7, 0x3a, 0x10, 0x09, 0x73, 0x0d, 0xb8, 0xcf, 0xde,
  0x0e, 0xf4, 0xec, 0xe7, 0xee, 0xdc, 0xcf, 0x1a, 0xf4, 0x0a, 0xfd, 0x60,
  0x11, 0xeb, 0x06, 0xe0, 0x02, 0xe8, 0xfb, 0x17, 0xda, 0xe6, 0xe8, 0x4b,
  0xf9, 0x19, 0x2f, 0x7f, 0x1d, 0xfa, 0xd4, 0xd8, 0x02, 0xef, 0x05, 0xf5,
  0x07, 0xfd, 0xf6, 0xd1, 0xf0, 0xd4, 0x1f, 0x23, 0xce, 0xbc, 0x1b, 0x98,
  0xd1, 0xf3, 0x14, 0x81, 0x07, 0xed, 0xc2, 0x00, 0x9a, 0x95, 0xf3, 0x11,
  0xdf, 0x2f, 0xda, 0xa2, 0xee, 0x26, 0x0a, 0xdb, 0xd6, 0xe3, 0xd1, 0xb3,
  0xbe, 0x89, 0xf5, 0xd3, 0x8c, 0x5d, 0xaf, 0x92, 0x44, 0xe2, 0xfa, 0xd5,
  0xe4, 0xbf, 0xfa, 0x41, 0xe4, 0xe7, 0xef, 0xcb, 0x14, 0xf0, 0x1a, 0x30,
  0xd2, 0xc1, 0xed, 0xff, 0x04, 0xfa, 0x29, 0xe4, 0x29, 0xb3, 0xf8, 0x35,
  0xec, 0x0d, 0xc2, 0xdf, 0xe5, 0xf5, 0xff, 0xc7, 0xce, 0xc1, 0x04, 0xb8,
  0xdc, 0xfa, 0xdf, 0x28, 0xf2, 0x02, 0xca, 0xf8, 0xfc, 0xff, 0xfd, 0x81,
  0xf9, 0xa7, 0x32, 0x09, 0xc0, 0xf8, 0xf4, 0xf3, 0x04, 0x1e, 0xc6, 0xbe,
  0xfd, 0x1a, 0x08, 0xba, 0xec, 0xb0, 0xfe, 0xe8, 0xf9, 0xfd, 0xf8, 0x23,
  0xec, 0x11, 0xcc, 0xee, 0x03, 0x05, 0xfc, 0xc6, 0xe6, 0xe0, 0xfd, 0x9d,
  0x1e, 0x12, 0x08, 0x1c, 0x2b, 0x1e, 0xe1, 0xce, 0x01, 0x2c, 0x13, 0x7f,
  0xf8, 0xe5, 0x0f, 0xd8, 0xf8, 0x2e, 0xf0, 0x11, 0x17, 0xe4, 0xdb, 0xec,
  0xdd, 0xef, 0xfd, 0x46, 0xd9, 0xd6, 0xdd, 0xd7, 0xed, 0x00, 0xda, 0xfd,
  0xc3, 0xfc, 0xeb, 0x40, 0xfc, 0xc6, 0xf4, 0xcc, 0x0c, 0xe3, 0xd4, 0x18,
  0x0f, 0x09, 0xf3, 0xe8, 0xef, 0x14, 0x03, 0xf0, 0xee, 0x03, 0xf9, 0xef,
  0x07, 0x0f, 0xe0, 0xc8, 0x0d, 0x1b, 0x40, 0xd4, 0xd3, 0x17, 0xff, 0x32,
  0xe5, 0xf5, 0xff, 0xc4, 0x01, 0xfc, 0xf4, 0xf0, 0xc8, 0xe0, 0x03, 0x23,
  0xde, 0xeb, 0xde, 0x22, 0x0c, 0x04, 0x04, 0x02, 0x02, 0x11, 0x03, 0xea,
  0x00, 0xfe, 0x03, 0x25, 0xfb, 0xdc, 0xfe, 0x35, 0x81, 0xf6, 0xf7, 0xea,
  0xfd, 0x12, 0xf1, 0xfb, 0xf7, 0xdc, 0xfb, 0x08, 0xcf, 0x0f, 0x10, 0xe3,
  0xf2, 0xfb, 0x00, 0x23, 0x19, 0x09, 0x17, 0xe1, 0xf9, 0xe7, 0x0f, 0x0c,
  0xfc, 0x15, 0xf8, 0x0d, 0xe3, 0xdf, 0xe3, 0xcd, 0xf0, 0xe8, 0x0f, 0xe7,
  0xf3, 0xec, 0xf2, 0x07, 0xd0, 0x04, 0x03, 0x26, 0xd6, 0xcc, 0xe1, 0x96,
  0x04, 0x0b, 0x14, 0xfd, 0xd9, 0xf7, 0xfc, 0xde, 0xe4, 0xf6, 0x05, 0x10,
  0x81, 0xe2, 0xd6, 0xce, 0x12, 0x03, 0x0b, 0xb2, 0xc5, 0xf8, 0x16, 0xd8,
  0xe5, 0xdd, 0x09, 0x2e, 0xba, 0xe1, 0xeb, 0xec, 0x10, 0x0f, 0xf3, 0xc1,
  0xbc, 0xf8, 0xfb, 0xe5, 0xda, 0xf3, 0xc6, 0xa4, 0x00, 0x47, 0xf0, 0xff,
  0xf3, 0xf3, 0x03, 0xf7, 0xec, 0x52, 0xfc, 0xff, 0x13, 0xde, 0x3f, 0xb9,
  0xfa, 0xa2, 0xce, 0x14, 0x03, 0x22, 0x81, 0x12, 0x0a, 0x98, 0x04, 0xf2,
  0x1e, 0xf7, 0xff, 0x02, 0x4e, 0xc8, 0xfc, 0x56, 0x29, 0x0a, 0xd1, 0x2c,
  0x1b, 0x12, 0xf8, 0x00, 0xe8, 0x18, 0x9f, 0xd6, 0xf8, 0x2e, 0x0a, 0x7e,
  0xe2, 0xd0, 0x1c, 0xf0, 0xfa, 0x3e, 0xe1, 0xf7, 0x15, 0xba, 0xe1, 0xe7,
  0x00, 0xf4, 0x0c, 0xde, 0xf2, 0xe8, 0xfb, 0xf2, 0xfa, 0xc4, 0x0d, 0x04,
  0x07, 0x81, 0xf7, 0xe6, 0x02, 0xfe, 0x13, 0xf7, 0x00, 0x01, 0xf8, 0x0f,
  0x00, 0xaf, 0xf6, 0x04, 0x14, 0xa7, 0xea, 0xd5, 0x0a, 0x0d, 0x0e, 0xf8,
  0xf9, 0x08, 0xb9, 0xd6, 0x06, 0xe0, 0xfe, 0x25, 0xef, 0x82, 0xd0, 0xc3,
  0xf5, 0xfc, 0x0b, 0x24, 0x04, 0xfb, 0xd9, 0xbd, 0xfe, 0xcd, 0x09, 0x0f,
  0x68, 0x2a, 0xf3, 0x00, 0x00, 0x2b, 0xf8, 0x3d, 0x1b, 0xcd, 0xe2, 0xf5,
  0xb6, 0xf7, 0xca, 0x2e, 0xd0, 0x12, 0xea, 0xda, 0x0e, 0xfc, 0x33, 0x57,
  0xae, 0xc0, 0xf4, 0xf4, 0xcf, 0x14, 0xa1, 0xdb, 0xfc, 0xfc, 0xf8, 0x04,
  0xbe, 0xc8, 0xf3, 0xd2, 0xfa, 0xbd, 0xfd, 0xfe, 0x19, 0xa9, 0xf1, 0x07,
  0xd4, 0x90, 0xdd, 0x0c, 0xdf, 0x9a, 0xac, 0xcd, 0x11, 0xfb, 0xe9, 0xe3,
  0x27, 0x81, 0x3e, 0xd6, 0xff, 0xdb, 0xee, 0x07, 0xdb, 0xfb, 0xfd, 0x63,
  0xb2, 0xbd, 0x0c, 0xc1, 0x8e, 0x0a, 0x03, 0x16, 0x1e, 0xe5, 0xe8, 0xe8,
  0x2f, 0x07, 0x01, 0x21, 0xcb, 0xdf, 0xf3, 0x81, 0xc4, 0xe6, 0x9b, 0xf2,
  0xed, 0x0b, 0xd0, 0xd6, 0xd8, 0x1a, 0x0e, 0x3c, 0xfd, 0xde, 0x26, 0xda,
  0xc4, 0xcf, 0xdf, 0x05, 0xf2, 0xab, 0xef, 0xe1, 0x89, 0x0e, 0x11, 0xc0,
  0xc3, 0xe1, 0x2f, 0xb4, 0xc7, 0xf4, 0xfe, 0xd6, 0x16, 0xa2, 0xfc, 0x01,
  0xea, 0xe4, 0xf9, 0x40, 0xf3, 0xfe, 0xa5, 0x99, 0x81, 0x0e, 0x05, 0xec,
  0xd5, 0xd6, 0xd7, 0xea, 0xd5, 0xf8, 0x06, 0xe3, 0x01, 0xff, 0xbc, 0x84,
  0x9f, 0x1c, 0x1a, 0x1e, 0xf0, 0x04, 0xa8, 0xf9, 0xe4, 0x1f, 0xfb, 0x35,
  0xe1, 0xf5, 0x02, 0xf7, 0xd3, 0xb3, 0x8d, 0x2d, 0x20, 0x0e, 0xcc, 0xcb,
  0x2c, 0x0e, 0x08, 0x34, 0xd8, 0xd9, 0xdd, 0xfe, 0xf0, 0x04, 0x9e, 0xdc,
  0xd0, 0xef, 0xb8, 0x0f, 0x6a, 0x08, 0x07, 0x26, 0x0d, 0x0b, 0x12, 0x0f,
  0x03, 0xd0, 0xff, 0x20, 0xf7, 0xda, 0xf3, 0x89, 0xa2, 0x6a, 0x0f, 0x8a,
  0xb3, 0xb7, 0xe1, 0xe8, 0xdf, 0xd1, 0xfd, 0xf8, 0xfc, 0xfa, 0x3f, 0x8e,
  0x05, 0xdf, 0xf2, 0xe5, 0x31, 0xf4, 0xd1, 0xd2, 0xd2, 0xf0, 0x09, 0x2c,
  0xe0, 0xda, 0x81, 0xb4, 0x6b, 0x32, 0x07, 0xb7, 0xe0, 0xc7, 0x2d, 0xd3,
  0xa8, 0x92, 0xfc, 0xb9, 0x0d, 0xff, 0x0c, 0xd7, 0x04, 0x24, 0x0e, 0x81,
  0xc8, 0xcc, 0xed, 0xea, 0x15, 0xeb, 0xef, 0xfd, 0xb4, 0x04, 0xde, 0x33,
  0x03, 0x01, 0xf8, 0x86, 0x09, 0xed, 0xf6, 0xfc, 0x30, 0xce, 0xf2, 0x0b,
  0xd4, 0x24, 0xcb, 0x2f, 0x0f, 0x07, 0xfc, 0xce, 0xdd, 0xb5, 0x18, 0xb1,
  0xce, 0xbf, 0xdd, 0x01, 0x19, 0x09, 0xbd, 0xfc, 0xec, 0xfa, 0x3b, 0xc8,
  0xf6, 0x96, 0xf6, 0xf9, 0xca, 0xb6, 0xc7, 0x0f, 0x13, 0xd6, 0xe3, 0xf1,
  0x13, 0x03, 0xef, 0x98, 0xf2, 0xd1, 0xf3, 0xbf, 0x4b, 0x1b, 0x0d, 0x3a,
  0x22, 0xf3, 0x1c, 0x1d, 0x08, 0xc5, 0xc9, 0xab, 0x18, 0x1e, 0xc9, 0x0f,
  0xf5, 0xf2, 0x0f, 0xd5, 0x2c, 0xf4, 0x26, 0x02, 0x31, 0xe4, 0xef, 0xf0,
  0x1b, 0x1f, 0xfe, 0x2d, 0xf9, 0xfe, 0xf6, 0x7f, 0x21, 0xf4, 0xf6, 0x1d,
  0x10, 0xe7, 0xdc, 0x07, 0xe4, 0x12, 0xfa, 0x1b, 0x27, 0x03, 0xea, 0x44,
  0x3e, 0xfe, 0xff, 0xff, 0x04, 0x00, 0x00, 0x00, 0x40, 0x00, 0x00, 0x00,
  0x0d, 0x00, 0x00, 0x00, 0xef, 0xff, 0xff, 0xff, 0xfd, 0xff, 0xff, 0xff,
  0xd7, 0xff, 0xff, 0xff, 0xf8, 0xff, 0xff, 0xff, 0x6e, 0xff, 0xff, 0xff,
  0xae, 0xff, 0xff, 0xff, 0xd2, 0xff, 0xff, 0xff, 0xd6, 0xff, 0xff, 0xff,
  0xde, 0xff, 0xff, 0xff, 0xf4, 0xff, 0xff, 0xff, 0x0e, 0x00, 0x00, 0x00,
  0xe9, 0xff, 0xff, 0xff, 0x00, 0x00, 0x00, 0x00, 0xcb, 0xff, 0xff, 0xff,
  0x15, 0x00, 0x00, 0x00, 0x8a, 0xfe, 0xff, 0xff, 0x04, 0x00, 0x00, 0x00,
  0xc0, 0x00, 0x00, 0x00, 0x16, 0xd3, 0x15, 0x41, 0x98, 0x92, 0x15, 0x81,
  0xc0, 0xe5, 0x13, 0x15, 0xd2, 0x53, 0x14, 0xf2, 0x32, 0xb8, 0x07, 0x81,
  0x4d, 0x40, 0xb3, 0x0c, 0x1d, 0x13, 0x49, 0x0f, 0xde, 0xe4, 0x1f, 0x21,
  0x95, 0x15, 0x81, 0xc2, 0x0a, 0x93, 0x05, 0x2b, 0x86, 0xd8, 0x3a, 0xe9,
  0x12, 0x48, 0x81, 0xaa, 0x2e, 0x30, 0x88, 0xf3, 0xfb, 0xc1, 0xcb, 0xe8,
  0x28, 0xf8, 0xf6, 0x7f, 0x22, 0x07, 0xff, 0xe8, 0x6c, 0x99, 0x9e, 0x72,
  0x05, 0x81, 0x0d, 0xb2, 0xee, 0x05, 0x0e, 0xf1, 0x18, 0xdd, 0xc9, 0x0f,
  0xec, 0xdb, 0x7f, 0xa3, 0x3c, 0x61, 0xaa, 0xcc, 0x8f, 0xb8, 0x04, 0xd2,
  0x59, 0xc8, 0x9b, 0x7f, 0x39, 0xce, 0x98, 0x46, 0x82, 0xdd, 0xef, 0x81,
  0x14, 0x34, 0x42, 0xc9, 0x7f, 0xc9, 0x91, 0xff, 0x18, 0x13, 0x0c, 0xc3,
  0xaa, 0x10, 0xa1, 0x39, 0xf6, 0xd8, 0x25, 0x1e, 0x81, 0x53, 0x0c, 0xf6,
  0x0a, 0x0a, 0x91, 0x35, 0xfa, 0x2e, 0x81, 0xf0, 0xf3, 0x19, 0x0b, 0xd3,
  0xf3, 0x22, 0xe9, 0x08, 0x97, 0xca, 0x21, 0x3a, 0xb4, 0x0b, 0xe7, 0xc2,
  0x32, 0x81, 0xf9, 0x3b, 0xf1, 0xca, 0x7f, 0x0a, 0xdf, 0x1a, 0x10, 0x04,
  0x1a, 0xea, 0xce, 0x9c, 0xe8, 0x81, 0xe7, 0x35, 0xdf, 0xe9, 0x3f, 0x1c,
  0x1f, 0x63, 0x93, 0xa9, 0x27, 0xc0, 0xdc, 0x0b, 0xd8, 0xba, 0xf1, 0xa8,
  0xe0, 0x12, 0x81, 0xda, 0x56, 0xff, 0xff, 0xff, 0x04, 0x00, 0x00, 0x00,
  0x08, 0x00, 0x00, 0x00, 0xff, 0xff, 0xff, 0xff, 0x40, 0x00, 0x00, 0x00,
  0x10, 0xf1, 0xff, 0xff, 0x14, 0xf1, 0xff, 0xff, 0x0f, 0x00, 0x00, 0x00,
  0x4d, 0x4c, 0x49, 0x52, 0x20, 0x43, 0x6f, 0x6e, 0x76, 0x65, 0x72, 0x74,
  0x65, 0x64, 0x2e, 0x00, 0x01, 0x00, 0x00, 0x00, 0x14, 0x00, 0x00, 0x00,
  0x00, 0x00, 0x0e, 0x00, 0x18, 0x00, 0x14, 0x00, 0x10, 0x00, 0x0c, 0x00,
  0x08, 0x00, 0x04, 0x00, 0x0e, 0x00, 0x00, 0x00, 0x14, 0x00, 0x00, 0x00,
  0x1c, 0x00, 0x00, 0x00, 0x58, 0x02, 0x00, 0x00, 0x5c, 0x02, 0x00, 0x00,
  0x60, 0x02, 0x00, 0x00, 0x04, 0x00, 0x00, 0x00, 0x6d, 0x61, 0x69, 0x6e,
  0x00, 0x00, 0x00, 0x00, 0x08, 0x00, 0x00, 0x00, 0xf4, 0x01, 0x00, 0x00,
  0x90, 0x01, 0x00, 0x00, 0x40, 0x01, 0x00, 0x00, 0xf0, 0x00, 0x00, 0x00,
  0xc8, 0x00, 0x00, 0x00, 0x78, 0x00, 0x00, 0x00, 0x40, 0x00, 0x00, 0x00,
  0x04, 0x00, 0x00, 0x00, 0x9a, 0xfe, 0xff, 0xff, 0x1c, 0x00, 0x00, 0x00,
  0x00, 0x00, 0x00, 0x09, 0x1c, 0x00, 0x00, 0x00, 0x20, 0x00, 0x00, 0x00,
  0x04, 0x00, 0x00, 0x00, 0x00, 0x00, 0x06, 0x00, 0x08, 0x00, 0x04, 0x00,
  0x06, 0x00, 0x00, 0x00, 0x00, 0x00, 0x80, 0x3f, 0x01, 0x00, 0x00, 0x00,
  0x11, 0x00, 0x00, 0x00, 0x01, 0x00, 0x00, 0x00, 0x10, 0x00, 0x00, 0x00,
  0xd2, 0xfe, 0xff, 0xff, 0x14, 0x00, 0x00, 0x00, 0x00, 0x00, 0x00, 0x08,
  0x10, 0x00, 0x00, 0x00, 0x14, 0x00, 0x00, 0x00, 0x03, 0x00, 0x00, 0x00,
  0xdc, 0xf1, 0xff, 0xff, 0x01, 0x00, 0x00, 0x00, 0x10, 0x00, 0x00, 0x00,
  0x03, 0x00, 0x00, 0x00, 0x0f, 0x00, 0x00, 0x00, 0x08, 0x00, 0x00, 0x00,
  0x09, 0x00, 0x00, 0x00, 0x06, 0xff, 0xff, 0xff, 0x1c, 0x00, 0x00, 0x00,
  0x00, 0x00, 0x00, 0x08, 0x1c, 0x00, 0x00, 0x00, 0x20, 0x00, 0x00, 0x00,
  0x03, 0x00, 0x00, 0x00, 0x00, 0x00, 0x06, 0x00, 0x08, 0x00, 0x07, 0x00,
  0x06, 0x00, 0x00, 0x00, 0x00, 0x00, 0x00, 0x01, 0x01, 0x00, 0x00, 0x00,
  0x0f, 0x00, 0x00, 0x00, 0x03, 0x00, 0x00, 0x00, 0x0e, 0x00, 0x00, 0x00,
  0x06, 0x00, 0x00, 0x00, 0x07, 0x00, 0x00, 0x00, 0x00, 0x00, 0x0a, 0x00,
  0x10, 0x00, 0x0c, 0x00, 0x08, 0x00, 0x04, 0x00, 0x0a, 0x00, 0x00, 0x00,
  0x0c, 0x00, 0x00, 0x00, 0x10, 0x00, 0x00, 0x00, 0x02, 0x00, 0x00, 0x00,
  0x01, 0x00, 0x00, 0x00, 0x0e, 0x00, 0x00, 0x00, 0x02, 0x00, 0x00, 0x00,
  0x0d, 0x00, 0x00, 0x00, 0x01, 0x00, 0x00, 0x00, 0x76, 0xff, 0xff, 0xff,
  0x24, 0x00, 0x00, 0x00, 0x00, 0x00, 0x00, 0x05, 0x30, 0x00, 0x00, 0x00,
  0x34, 0x00, 0x00, 0x00, 0x01, 0x00, 0x00, 0x00, 0x00, 0x00, 0x0e, 0x00,
  0x14, 0x00, 0x00, 0x00, 0x10, 0x00, 0x0c, 0x00, 0x08, 0x00, 0x04, 0x00,
  0x0e, 0x00, 0x00, 0x00, 0x03, 0x00, 0x00, 0x00, 0x01, 0x00, 0x00, 0x00,
  0x03, 0x00, 0x00, 0x00, 0x01, 0x00, 0x00, 0x00, 0x01, 0x00, 0x00, 0x00,
  0x0d, 0x00, 0x00, 0x00, 0x01, 0x00, 0x00, 0x00, 0x0c, 0x00, 0x00, 0x00,
  0x62, 0xff, 0xff, 0xff, 0x10, 0x00, 0x00, 0x00, 0x00, 0x00, 0x00, 0x01,
  0x18, 0x00, 0x00, 0x00, 0x1c, 0x00, 0x00, 0x00, 0x54, 0xff, 0xff, 0xff,
  0x00, 0x00, 0x00, 0x01, 0x01, 0x00, 0x00, 0x00, 0x01, 0x00, 0x00, 0x00,
  0x01, 0x00, 0x00, 0x00, 0x0c, 0x00, 0x00, 0x00, 0x03, 0x00, 0x00, 0x00,
  0x0b, 0x00, 0x00, 0x00, 0x04, 0x00, 0x00, 0x00, 0x05, 0x00, 0x00, 0x00,
  0x00, 0x00, 0x0e, 0x00, 0x1a, 0x00, 0x14, 0x00, 0x10, 0x00, 0x0c, 0x00,
  0x0b, 0x00, 0x04, 0x00, 0x0e, 0x00, 0x00, 0x00, 0x24, 0x00, 0x00, 0x00,
  0x00, 0x00, 0x00, 0x05, 0x34, 0x00, 0x00, 0x00, 0x38, 0x00, 0x00, 0x00,
  0x01, 0x00, 0x00, 0x00, 0x00, 0x00, 0x0e, 0x00, 0x18, 0x00, 0x17, 0x00,
  0x10, 0x00, 0x0c, 0x00, 0x08, 0x00, 0x04, 0x00, 0x0e, 0x00, 0x00, 0x00,
  0x03, 0x00, 0x00, 0x00, 0x03, 0x00, 0x00, 0x00, 0x03, 0x00, 0x00, 0x00,
  0x03, 0x00, 0x00, 0x00, 0x00, 0x00, 0x00, 0x01, 0x01, 0x00, 0x00, 0x00,
  0x0b, 0x00, 0x00, 0x00, 0x01, 0x00, 0x00, 0x00, 0x0a, 0x00, 0x00, 0x00,
  0x00, 0x00, 0x0e, 0x00, 0x14, 0x00, 0x00, 0x00, 0x10, 0x00, 0x0c, 0x00,
  0x0b, 0x00, 0x04, 0x00, 0x0e, 0x00, 0x00, 0x00, 0x1c, 0x00, 0x00, 0x00,
  0x00, 0x00, 0x00, 0x01, 0x24, 0x00, 0x00, 0x00, 0x28, 0x00, 0x00, 0x00,
  0x0c, 0x00, 0x10, 0x00, 0x00, 0x00, 0x0c, 0x00, 0x08, 0x00, 0x07, 0x00,
  0x0c, 0x00, 0x00, 0x00, 0x00, 0x00, 0x00, 0x01, 0x01, 0x00, 0x00, 0x00,
  0x01, 0x00, 0x00, 0x00, 0x01, 0x00, 0x00, 0x00, 0x0a, 0x00, 0x00, 0x00,
  0x03, 0x00, 0x00, 0x00, 0x00, 0x00, 0x00, 0x00, 0x02, 0x00, 0x00, 0x00,
  0x03, 0x00, 0x00, 0x00, 0x01, 0x00, 0x00, 0x00, 0x11, 0x00, 0x00, 0x00,
  0x01, 0x00, 0x00, 0x00, 0x00, 0x00, 0x00, 0x00, 0x12, 0x00, 0x00, 0x00,
  0x8c, 0x0c, 0x00, 0x00, 0x28, 0x0c, 0x00, 0x00, 0xf0, 0x0a, 0x00, 0x00,
  0xbc, 0x09, 0x00, 0x00, 0x90, 0x08, 0x00, 0x00, 0x5c, 0x07, 0x00, 0x00,
  0xf0, 0x06, 0x00, 0x00, 0x6c, 0x06, 0x00, 0x00, 0x00, 0x06, 0x00, 0x00,
  0x7c, 0x05, 0x00, 0x00, 0x60, 0x04, 0x00, 0x00, 0xcc, 0x03, 0x00, 0x00,
  0xd0, 0x02, 0x00, 0x00, 0x3c, 0x02, 0x00, 0x00, 0xc0, 0x01, 0x00, 0x00,
  0x0c, 0x01, 0x00, 0x00, 0x70, 0x00, 0x00, 0x00, 0x04, 0x00, 0x00, 0x00,
  0xd0, 0xf3, 0xff, 0xff, 0x18, 0x00, 0x00, 0x00, 0x20, 0x00, 0x00, 0x00,
  0x40, 0x00, 0x00, 0x00, 0x12, 0x00, 0x00, 0x00, 0x00, 0x00, 0x00, 0x09,
  0x44, 0x00, 0x00, 0x00, 0x02, 0x00, 0x00, 0x00, 0xff, 0xff, 0xff, 0xff,
  0x09, 0x00, 0x00, 0x00, 0xb4, 0xf3, 0xff, 0xff, 0x08, 0x00, 0x00, 0x00,
  0x14, 0x00, 0x00, 0x00, 0x01, 0x00, 0x00, 0x00, 0x80, 0xff, 0xff, 0xff,
  0xff, 0xff, 0xff, 0xff, 0x00, 0x00, 0x00, 0x00, 0x01, 0x00, 0x00, 0x00,
  0x00, 0x00, 0x80, 0x3b, 0x08, 0x00, 0x00, 0x00, 0x49, 0x64, 0x65, 0x6e,
  0x74, 0x69, 0x74, 0x79, 0x00, 0x00, 0x00, 0x00, 0x02, 0x00, 0x00, 0x00,
  0x01, 0x00, 0x00, 0x00, 0x09, 0x00, 0x00, 0x00, 0x38, 0xf4, 0xff, 0xff,
  0x18, 0x00, 0x00, 0x00, 0x20, 0x00, 0x00, 0x00, 0x40, 0x00, 0x00, 0x00,
  0x11, 0x00, 0x00, 0x00, 0x00, 0x00, 0x00, 0x09, 0x74, 0x00, 0x00, 0x00,
  0x02, 0x00, 0x00, 0x00, 0xff, 0xff, 0xff, 0xff, 0x09, 0x00, 0x00, 0x00,
  0x1c, 0xf4, 0xff, 0xff, 0x08, 0x00, 0x00, 0x00, 0x14, 0x00, 0x00, 0x00,
  0x01, 0x00, 0x00, 0x00, 0x23, 0x00, 0x00, 0x00, 0x00, 0x00, 0x00, 0x00,
  0x00, 0x00, 0x00, 0x00, 0x01, 0x00, 0x00, 0x00, 0x34, 0x80, 0xc8, 0x3f,
  0x38, 0x00, 0x00, 0x00, 0x73, 0x65, 0x71, 0x75, 0x65, 0x6e, 0x74, 0x69,
  0x61, 0x6c, 0x5f, 0x32, 0x2f, 0x64, 0x65, 0x6e, 0x73, 0x65, 0x5f, 0x35,
  0x2f, 0x4d, 0x61, 0x74, 0x4d, 0x75, 0x6c, 0x3b, 0x73, 0x65, 0x71, 0x75,
  0x65, 0x6e, 0x74, 0x69, 0x61, 0x6c, 0x5f, 0x32, 0x2f, 0x64, 0x65, 0x6e,
  0x73, 0x65, 0x5f, 0x35, 0x2f, 0x42, 0x69, 0x61, 0x73, 0x41, 0x64, 0x64,
  0x00, 0x00, 0x00, 0x00, 0x02, 0x00, 0x00, 0x00, 0x01, 0x00, 0x00, 0x00,
  0x09, 0x00, 0x00, 0x00, 0xd0, 0xf4, 0xff, 0xff, 0x18, 0x00, 0x00, 0x00,
  0x20, 0x00, 0x00, 0x00, 0x40, 0x00, 0x00, 0x00, 0x10, 0x00, 0x00, 0x00,
  0x00, 0x00, 0x00, 0x09, 0x8c, 0x00, 0x00, 0x00, 0x02, 0x00, 0x00, 0x00,
  0xff, 0xff, 0xff, 0xff, 0x10, 0x00, 0x00, 0x00, 0xb4, 0xf4, 0xff, 0xff,
  0x08, 0x00, 0x00, 0x00, 0x14, 0x00, 0x00, 0x00, 0x01, 0x00, 0x00, 0x00,
  0x80, 0xff, 0xff, 0xff, 0xff, 0xff, 0xff, 0xff, 0x00, 0x00, 0x00, 0x00,
  0x01, 0x00, 0x00, 0x00, 0x37, 0xf9, 0x64, 0x3f, 0x52, 0x00, 0x00, 0x00,
  0x73, 0x65, 0x71, 0x75, 0x65, 0x6e, 0x74, 0x69, 0x61, 0x6c, 0x5f, 0x32,
  0x2f, 0x64, 0x65, 0x6e, 0x73, 0x65, 0x5f, 0x34, 0x2f, 0x4d, 0x61, 0x74,
  0x4d, 0x75, 0x6c, 0x3b, 0x73, 0x65, 0x71, 0x75, 0x65, 0x6e, 0x74, 0x69,
  0x61, 0x6c, 0x5f, 0x32, 0x2f, 0x64, 0x65, 0x6e, 0x73, 0x65, 0x5f, 0x34,
  0x2f, 0x52, 0x65, 0x6c, 0x75, 0x3b, 0x73, 0x65, 0x71, 0x75, 0x65, 0x6e,
  0x74, 0x69, 0x61, 0x6c, 0x5f, 0x32, 0x2f, 0x64, 0x65, 0x6e, 0x73, 0x65,
  0x5f, 0x34, 0x2f, 0x42, 0x69, 0x61, 0x73, 0x41, 0x64, 0x64, 0x00, 0x00,
  0x02, 0x00, 0x00, 0x00, 0x01, 0x00, 0x00, 0x00, 0x10, 0x00, 0x00, 0x00,
  0x80, 0xf5, 0xff, 0xff, 0x18, 0x00, 0x00, 0x00, 0x20, 0x00, 0x00, 0x00,
  0x3c, 0x00, 0x00, 0x00, 0x0f, 0x00, 0x00, 0x00, 0x00, 0x00, 0x00, 0x09,
  0x54, 0x00, 0x00, 0x00, 0x02, 0x00, 0x00, 0x00, 0xff, 0xff, 0xff, 0xff,
  0x40, 0x00, 0x00, 0x00, 0x64, 0xf5, 0xff, 0xff, 0x08, 0x00, 0x00, 0x00,
  0x10, 0x00, 0x00, 0x00, 0x01, 0x00, 0x00, 0x00, 0x80, 0xff, 0xff, 0xff,
  0xff, 0xff, 0xff, 0xff, 0x01, 0x00, 0x00, 0x00, 0xda, 0x1d, 0x80, 0x3f,
  0x1e, 0x00, 0x00, 0x00, 0x73, 0x65, 0x71, 0x75, 0x65, 0x6e, 0x74, 0x69,
  0x61, 0x6c, 0x5f, 0x32, 0x2f, 0x66, 0x6c, 0x61, 0x74, 0x74, 0x65, 0x6e,
  0x5f, 0x32, 0x2f, 0x52, 0x65, 0x73, 0x68, 0x61, 0x70, 0x65, 0x00, 0x00,
  0x02, 0x00, 0x00, 0x00, 0x01, 0x00, 0x00, 0x00, 0x40, 0x00, 0x00, 0x00,
  0xf8, 0xf5, 0xff, 0xff, 0x18, 0x00, 0x00, 0x00, 0x28, 0x00, 0x00, 0x00,
  0x44, 0x00, 0x00, 0x00, 0x0e, 0x00, 0x00, 0x00, 0x00, 0x00, 0x00, 0x09,
  0x64, 0x00, 0x00, 0x00, 0x04, 0x00, 0x00, 0x00, 0xff, 0xff, 0xff, 0xff,
  0x02, 0x00, 0x00, 0x00, 0x02, 0x00, 0x00, 0x00, 0x10, 0x00, 0x00, 0x00,
  0xe4, 0xf5, 0xff, 0xff, 0x08, 0x00, 0x00, 0x00, 0x10, 0x00, 0x00, 0x00,
  0x01, 0x00, 0x00, 0x00, 0x80, 0xff, 0xff, 0xff, 0xff, 0xff, 0xff, 0xff,
  0x01, 0x00, 0x00, 0x00, 0xda, 0x1d, 0x80, 0x3f, 0x24, 0x00, 0x00, 0x00,
  0x73, 0x65, 0x71, 0x75, 0x65, 0x6e, 0x74, 0x69, 0x61, 0x6c, 0x5f, 0x32,
  0x2f, 0x6d, 0x61, 0x78, 0x5f, 0x70, 0x6f, 0x6f, 0x6c, 0x69, 0x6e, 0x67,
  0x32, 0x64, 0x5f, 0x35, 0x2f, 0x4d, 0x61, 0x78, 0x50, 0x6f, 0x6f, 0x6c,
  0x00, 0x00, 0x00, 0x00, 0x04, 0x00, 0x00, 0x00, 0x01, 0x00, 0x00, 0x00,
  0x02, 0x00, 0x00, 0x00, 0x02, 0x00, 0x00, 0x00, 0x10, 0x00, 0x00, 0x00,
  0x88, 0xf6, 0xff, 0xff, 0x18, 0x00, 0x00, 0x00, 0x28, 0x00, 0x00, 0x00,
  0x48, 0x00, 0x00, 0x00, 0x0d, 0x00, 0x00, 0x00, 0x00, 0x00, 0x00, 0x09,
  0xcc, 0x00, 0x00, 0x00, 0x04, 0x00, 0x00, 0x00, 0xff, 0xff, 0xff, 0xff,
  0x06, 0x00, 0x00, 0x00, 0x02, 0x00, 0x00, 0x00, 0x10, 0x00, 0x00, 0x00,
  0x74, 0xf6, 0xff, 0xff, 0x08, 0x00, 0x00, 0x00, 0x14, 0x00, 0x00, 0x00,
  0x01, 0x00, 0x00, 0x00, 0x80, 0xff, 0xff, 0xff, 0xff, 0xff, 0xff, 0xff,
  0x00, 0x00, 0x00, 0x00, 0x01, 0x00, 0x00, 0x00, 0xda, 0x1d, 0x80, 0x3f,
  0x8b, 0x00, 0x00, 0x00, 0x73, 0x65, 0x71, 0x75, 0x65, 0x6e, 0x74, 0x69,
  0x61, 0x6c, 0x5f, 0x32, 0x2f, 0x63, 0x6f, 0x6e, 0x76, 0x32, 0x64, 0x5f,
  0x35, 0x2f, 0x52, 0x65, 0x6c, 0x75, 0x3b, 0x73, 0x65, 0x71, 0x75, 0x65,
  0x6e, 0x74, 0x69, 0x61, 0x6c, 0x5f, 0x32, 0x2f, 0x63, 0x6f, 0x6e, 0x76,
  0x32, 0x64, 0x5f, 0x35, 0x2f, 0x42, 0x69, 0x61, 0x73, 0x41, 0x64, 0x64,
  0x3b, 0x73, 0x65, 0x71, 0x75, 0x65, 0x6e, 0x74, 0x69, 0x61, 0x6c, 0x5f,
  0x32, 0x2f, 0x63, 0x6f, 0x6e, 0x76, 0x32, 0x64, 0x5f, 0x35, 0x2f, 0x43,
  0x6f, 0x6e, 0x76, 0x32, 0x44, 0x3b, 0x73, 0x65, 0x71, 0x75, 0x65, 0x6e,
  0x74, 0x69, 0x61, 0x6c, 0x5f, 0x32, 0x2f, 0x63, 0x6f, 0x6e, 0x76, 0x32,
  0x64, 0x5f, 0x35, 0x2f, 0x42, 0x69, 0x61, 0x73, 0x41, 0x64, 0x64, 0x2f,
  0x52, 0x65, 0x61, 0x64, 0x56, 0x61, 0x72, 0x69, 0x61, 0x62, 0x6c, 0x65,
  0x4f, 0x70, 0x2f, 0x72, 0x65, 0x73, 0x6f, 0x75, 0x72, 0x63, 0x65, 0x00,
  0x04, 0x00, 0x00, 0x00, 0x01, 0x00, 0x00, 0x00, 0x06, 0x00, 0x00, 0x00,
  0x02, 0x00, 0x00, 0x00, 0x10, 0x00, 0x00, 0x00, 0x80, 0xf7, 0xff, 0xff,
  0x18, 0x00, 0x00, 0x00, 0x28, 0x00, 0x00, 0x00, 0x44, 0x00, 0x00, 0x00,
  0x0c, 0x00, 0x00, 0x00, 0x00, 0x00, 0x00, 0x09, 0x64, 0x00, 0x00, 0x00,
  0x04, 0x00, 0x00, 0x00, 0xff, 0xff, 0xff, 0xff, 0x06, 0x00, 0x00, 0x00,
  0x02, 0x00, 0x00, 0x00, 0x10, 0x00, 0x00, 0x00, 0x6c, 0xf7, 0xff, 0xff,
  0x08, 0x00, 0x00, 0x00, 0x10, 0x00, 0x00, 0x00, 0x01, 0x00, 0x00, 0x00,
  0x80, 0xff, 0xff, 0xff, 0xff, 0xff, 0xff, 0xff, 0x01, 0x00, 0x00, 0x00,
  0x0e, 0x79, 0x5a, 0x3f, 0x24, 0x00, 0x00, 0x00, 0x73, 0x65, 0x71, 0x75,
  0x65, 0x6e, 0x74, 0x69, 0x61, 0x6c, 0x5f, 0x32, 0x2f, 0x6d, 0x61, 0x78,
  0x5f, 0x70, 0x6f, 0x6f, 0x6c, 0x69, 0x6e, 0x67, 0x32, 0x64, 0x5f, 0x34,
  0x2f, 0x4d, 0x61, 0x78, 0x50, 0x6f, 0x6f, 0x6c, 0x00, 0x00, 0x00, 0x00,
  0x04, 0x00, 0x00, 0x00, 0x01, 0x00, 0x00, 0x00, 0x06, 0x00, 0x00, 0x00,
  0x02, 0x00, 0x00, 0x00, 0x10, 0x00, 0x00, 0x00, 0x10, 0xf8, 0xff, 0xff,
  0x18, 0x00, 0x00, 0x00, 0x28, 0x00, 0x00, 0x00, 0x48, 0x00, 0x00, 0x00,
  0x0b, 0x00, 0x00, 0x00, 0x00, 0x00, 0x00, 0x09, 0xec, 0x00, 0x00, 0x00,
  0x04, 0x00, 0x00, 0x00, 0xff, 0xff, 0xff, 0xff, 0x14, 0x00, 0x00, 0x00,
  0x06, 0x00, 0x00, 0x00, 0x10, 0x00, 0x00, 0x00, 0xfc, 0xf7, 0xff, 0xff,
  0x08, 0x00, 0x00, 0x00, 0x14, 0x00, 0x00, 0x00, 0x01, 0x00, 0x00, 0x00,
  0x80, 0xff, 0xff, 0xff, 0xff, 0xff, 0xff, 0xff, 0x00, 0x00, 0x00, 0x00,
  0x01, 0x00, 0x00, 0x00, 0x0e, 0x79, 0x5a, 0x3f, 0xa8, 0x00, 0x00, 0x00,
  0x73, 0x65, 0x71, 0x75, 0x65, 0x6e, 0x74, 0x69, 0x61, 0x6c, 0x5f, 0x32,
  0x2f, 0x63, 0x6f, 0x6e, 0x76, 0x32, 0x64, 0x5f, 0x34, 0x2f, 0x52, 0x65,
  0x6c, 0x75, 0x3b, 0x73, 0x65, 0x71, 0x75, 0x65, 0x6e, 0x74, 0x69, 0x61,
  0x6c, 0x5f, 0x32, 0x2f, 0x63, 0x6f, 0x6e, 0x76, 0x32, 0x64, 0x5f, 0x34,
  0x2f, 0x42, 0x69, 0x61, 0x73, 0x41, 0x64, 0x64, 0x3b, 0x73, 0x65, 0x71,
  0x75, 0x65, 0x6e, 0x74, 0x69, 0x61, 0x6c, 0x5f, 0x32, 0x2f, 0x63, 0x6f,
  0x6e, 0x76, 0x32, 0x64, 0x5f, 0x35, 0x2f, 0x43, 0x6f, 0x6e, 0x76, 0x32,
  0x44, 0x3b, 0x73, 0x65, 0x71, 0x75, 0x65, 0x6e, 0x74, 0x69, 0x61, 0x6c,
  0x5f, 0x32, 0x2f, 0x63, 0x6f, 0x6e, 0x76, 0x32, 0x64, 0x5f, 0x34, 0x2f,
  0x43, 0x6f, 0x6e, 0x76, 0x32, 0x44, 0x3b, 0x73, 0x65, 0x71, 0x75, 0x65,
  0x6e, 0x74, 0x69, 0x61, 0x6c, 0x5f, 0x32, 0x2f, 0x63, 0x6f, 0x6e, 0x76,
  0x32, 0x64, 0x5f, 0x34, 0x2f, 0x42, 0x69, 0x61, 0x73, 0x41, 0x64, 0x64,
  0x2f, 0x52, 0x65, 0x61, 0x64, 0x56, 0x61, 0x72, 0x69, 0x61, 0x62, 0x6c,
  0x65, 0x4f, 0x70, 0x2f, 0x72, 0x65, 0x73, 0x6f, 0x75, 0x72, 0x63, 0x65,
  0x00, 0x00, 0x00, 0x00, 0x04, 0x00, 0x00, 0x00, 0x01, 0x00, 0x00, 0x00,
  0x14, 0x00, 0x00, 0x00, 0x06, 0x00, 0x00, 0x00, 0x10, 0x00, 0x00, 0x00,
  0x82, 0xf9, 0xff, 0xff, 0x14, 0x00, 0x00, 0x00, 0x34, 0x00, 0x00, 0x00,
  0x0a, 0x00, 0x00, 0x00, 0x00, 0x00, 0x00, 0x02, 0x64, 0x00, 0x00, 0x00,
  0xfc, 0xf8, 0xff, 0xff, 0x08, 0x00, 0x00, 0x00, 0x14, 0x00, 0x00, 0x00,
  0x01, 0x00, 0x00, 0x00, 0x00, 0x00, 0x00, 0x00, 0x00, 0x00, 0x00, 0x00,
  0x00, 0x00, 0x00, 0x00, 0x01, 0x00, 0x00, 0x00, 0xa2, 0x7e, 0xda, 0x3b,
  0x34, 0x00, 0x00, 0x00, 0x73, 0x65, 0x71, 0x75, 0x65, 0x6e, 0x74, 0x69,
  0x61, 0x6c, 0x5f, 0x32, 0x2f, 0x64, 0x65, 0x6e, 0x73, 0x65, 0x5f, 0x35,
  0x2f, 0x42, 0x69, 0x61, 0x73, 0x41, 0x64, 0x64, 0x2f, 0x52, 0x65, 0x61,
  0x64, 0x56, 0x61, 0x72, 0x69, 0x61, 0x62, 0x6c, 0x65, 0x4f, 0x70, 0x2f,
  0x72, 0x65, 0x73, 0x6f, 0x75, 0x72, 0x63, 0x65, 0x00, 0x00, 0x00, 0x00,
  0x01, 0x00, 0x00, 0x00, 0x09, 0x00, 0x00, 0x00, 0x02, 0xfa, 0xff, 0xff,
  0x14, 0x00, 0x00, 0x00, 0x34, 0x00, 0x00, 0x00, 0x09, 0x00, 0x00, 0x00,
  0x00, 0x00, 0x00, 0x09, 0x48, 0x00, 0x00, 0x00, 0x7c, 0xf9, 0xff, 0xff,
  0x08, 0x00, 0x00, 0x00, 0x14, 0x00, 0x00, 0x00, 0x01, 0x00, 0x00, 0x00,
  0x00, 0x00, 0x00, 0x00, 0x00, 0x00, 0x00, 0x00, 0x00, 0x00, 0x00, 0x00,
  0x01, 0x00, 0x00, 0x00, 0xc9, 0x48, 0xf4, 0x3b, 0x1b, 0x00, 0x00, 0x00,
  0x73, 0x65, 0x71, 0x75, 0x65, 0x6e, 0x74, 0x69, 0x61, 0x6c, 0x5f, 0x32,
  0x2f, 0x64, 0x65, 0x6e, 0x73, 0x65, 0x5f, 0x35, 0x2f, 0x4d, 0x61, 0x74,
  0x4d, 0x75, 0x6c, 0x00, 0x02, 0x00, 0x00, 0x00, 0x09, 0x00, 0x00, 0x00,
  0x10, 0x00, 0x00, 0x00, 0x6a, 0xfa, 0xff, 0xff, 0x14, 0x00, 0x00, 0x00,
  0x34, 0x00, 0x00, 0x00, 0x08, 0x00, 0x00, 0x00, 0x00, 0x00, 0x00, 0x02,
  0x64, 0x00, 0x00, 0x00, 0xe4, 0xf9, 0xff, 0xff, 0x08, 0x00, 0x00, 0x00,
  0x14, 0x00, 0x00, 0x00, 0x01, 0x00, 0x00, 0x00, 0x00, 0x00, 0x00, 0x00,
  0x00, 0x00, 0x00, 0x00, 0x00, 0x00, 0x00, 0x00, 0x01, 0x00, 0x00, 0x00,
  0x89, 0x60, 0xcb, 0x3b, 0x34, 0x00, 0x00, 0x00, 0x73, 0x65, 0x71, 0x75,
  0x65, 0x6e, 0x74, 0x69, 0x61, 0x6c, 0x5f, 0x32, 0x2f, 0x64, 0x65, 0x6e,
  0x73, 0x65, 0x5f, 0x34, 0x2f, 0x42, 0x69, 0x61, 0x73, 0x41, 0x64, 0x64,
  0x2f, 0x52, 0x65, 0x61, 0x64, 0x56, 0x61, 0x72, 0x69, 0x61, 0x62, 0x6c,
  0x65, 0x4f, 0x70, 0x2f, 0x72, 0x65, 0x73, 0x6f, 0x75, 0x72, 0x63, 0x65,
  0x00, 0x00, 0x00, 0x00, 0x01, 0x00, 0x00, 0x00, 0x10, 0x00, 0x00, 0x00,
  0xea, 0xfa, 0xff, 0xff, 0x14, 0x00, 0x00, 0x00, 0x34, 0x00, 0x00, 0x00,
  0x07, 0x00, 0x00, 0x00, 0x00, 0x00, 0x00, 0x09, 0x48, 0x00, 0x00, 0x00,
  0x64, 0xfa, 0xff, 0xff, 0x08, 0x00, 0x00, 0x00, 0x14, 0x00, 0x00, 0x00,
  0x01, 0x00, 0x00, 0x00, 0x00, 0x00, 0x00, 0x00, 0x00, 0x00, 0x00, 0x00,
  0x00, 0x00, 0x00, 0x00, 0x01, 0x00, 0x00, 0x00, 0x26, 0x31, 0xcb, 0x3b,
  0x1b, 0x00, 0x00, 0x00, 0x73, 0x65, 0x71, 0x75, 0x65, 0x6e, 0x74, 0x69,
  0x61, 0x6c, 0x5f, 0x32, 0x2f, 0x64, 0x65, 0x6e, 0x73, 0x65, 0x5f, 0x34,
  0x2f, 0x4d, 0x61, 0x74, 0x4d, 0x75, 0x6c, 0x00, 0x02, 0x00, 0x00, 0x00,
  0x10, 0x00, 0x00, 0x00, 0x40, 0x00, 0x00, 0x00, 0x52, 0xfb, 0xff, 0xff,
  0x14, 0x00, 0x00, 0x00, 0xe4, 0x00, 0x00, 0x00, 0x06, 0x00, 0x00, 0x00,
  0x00, 0x00, 0x00, 0x02, 0x14, 0x01, 0x00, 0x00, 0xcc, 0xfa, 0xff, 0xff,
  0x08, 0x00, 0x00, 0x00, 0x88, 0x00, 0x00, 0x00, 0x10, 0x00, 0x00, 0x00,
  0x00, 0x00, 0x00, 0x00, 0x00, 0x00, 0x00, 0x00, 0x00, 0x00, 0x00, 0x00,
  0x00, 0x00, 0x00, 0x00, 0x00, 0x00, 0x00, 0x00, 0x00, 0x00, 0x00, 0x00,
  0x00, 0x00, 0x00, 0x00, 0x00, 0x00, 0x00, 0x00, 0x00, 0x00, 0x00, 0x00,
  0x00, 0x00, 0x00, 0x00, 0x00, 0x00, 0x00, 0x00, 0x00, 0x00, 0x00, 0x00,
  0x00, 0x00, 0x00, 0x00, 0x00, 0x00, 0x00, 0x00, 0x00, 0x00, 0x00, 0x00,
  0x00, 0x00, 0x00, 0x00, 0x00, 0x00, 0x00, 0x00, 0x00, 0x00, 0x00, 0x00,
  0x00, 0x00, 0x00, 0x00, 0x00, 0x00, 0x00, 0x00, 0x00, 0x00, 0x00, 0x00,
  0x00, 0x00, 0x00, 0x00, 0x00, 0x00, 0x00, 0x00, 0x00, 0x00, 0x00, 0x00,
  0x00, 0x00, 0x00, 0x00, 0x00, 0x00, 0x00, 0x00, 0x00, 0x00, 0x00, 0x00,
  0x00, 0x00, 0x00, 0x00, 0x00, 0x00, 0x00, 0x00, 0x00, 0x00, 0x00, 0x00,
  0x00, 0x00, 0x00, 0x00, 0x00, 0x00, 0x00, 0x00, 0x10, 0x00, 0x00, 0x00,
  0x54, 0xad, 0x54, 0x3b, 0x4a, 0x22, 0x8d, 0x3b, 0xec, 0x09, 0xa4, 0x3b,
  0x59, 0x59, 0x48, 0x3b, 0xed, 0x8f, 0xb3, 0x3b, 0xf6, 0x36, 0x99, 0x3b,
  0xf9, 0x59, 0xe6, 0x3b, 0x9d, 0xed, 0xd3, 0x3b, 0x30, 0xdd, 0x82, 0x3b,
  0x02, 0x60, 0xd5, 0x3b, 0x71, 0xe6, 0x51, 0x3b, 0x6e, 0x4e, 0x60, 0x3b,
  0xe3, 0x86, 0x91, 0x3b, 0x08, 0xfa, 0x33, 0x3b, 0x61, 0x03, 0x80, 0x3b,
  0xc7, 0xab, 0x86, 0x3b, 0x35, 0x00, 0x00, 0x00, 0x73, 0x65, 0x71, 0x75,
  0x65, 0x6e, 0x74, 0x69, 0x61, 0x6c, 0x5f, 0x32, 0x2f, 0x63, 0x6f, 0x6e,
  0x76, 0x32, 0x64, 0x5f, 0x35, 0x2f, 0x42, 0x69, 0x61, 0x73, 0x41, 0x64,
  0x64, 0x2f, 0x52, 0x65, 0x61, 0x64, 0x56, 0x61, 0x72, 0x69, 0x61, 0x62,
  0x6c, 0x65, 0x4f, 0x70, 0x2f, 0x72, 0x65, 0x73, 0x6f, 0x75, 0x72, 0x63,
  0x65, 0x00, 0x00, 0x00, 0x01, 0x00, 0x00, 0x00, 0x10, 0x00, 0x00, 0x00,
  0x82, 0xfc, 0xff, 0xff, 0x14, 0x00, 0x00, 0x00, 0xe8, 0x00, 0x00, 0x00,
  0x05, 0x00, 0x00, 0x00, 0x00, 0x00, 0x00, 0x09, 0x00, 0x01, 0x00, 0x00,
  0xfc, 0xfb, 0xff, 0xff, 0x08, 0x00, 0x00, 0x00, 0x8c, 0x00, 0x00, 0x00,
  0x10, 0x00, 0x00, 0x00, 0x00, 0x00, 0x00, 0x00, 0x00, 0x00, 0x00, 0x00,
  0x00, 0x00, 0x00, 0x00, 0x00, 0x00, 0x00, 0x00, 0x00, 0x00, 0x00, 0x00,
  0x00, 0x00, 0x00, 0x00, 0x00, 0x00, 0x00, 0x00, 0x00, 0x00, 0x00, 0x00,
  0x00, 0x00, 0x00, 0x00, 0x00, 0x00, 0x00, 0x00, 0x00, 0x00, 0x00, 0x00,
  0x00, 0x00, 0x00, 0x00, 0x00, 0x00, 0x00, 0x00, 0x00, 0x00, 0x00, 0x00,
  0x00, 0x00, 0x00, 0x00, 0x00, 0x00, 0x00, 0x00, 0x00, 0x00, 0x00, 0x00,
  0x00, 0x00, 0x00, 0x00, 0x00, 0x00, 0x00, 0x00, 0x00, 0x00, 0x00, 0x00,
  0x00, 0x00, 0x00, 0x00, 0x00, 0x00, 0x00, 0x00, 0x00, 0x00, 0x00, 0x00,
  0x00, 0x00, 0x00, 0x00, 0x00, 0x00, 0x00, 0x00, 0x00, 0x00, 0x00, 0x00,
  0x00, 0x00, 0x00, 0x00, 0x00, 0x00, 0x00, 0x00, 0x00, 0x00, 0x00, 0x00,
  0x00, 0x00, 0x00, 0x00, 0x00, 0x00, 0x00, 0x00, 0x00, 0x00, 0x00, 0x00,
  0x00, 0x00, 0x00, 0x00, 0x10, 0x00, 0x00, 0x00, 0x6a, 0x35, 0x79, 0x3b,
  0x65, 0x60, 0xa5, 0x3b, 0x3a, 0x37, 0xc0, 0x3b, 0x54, 0xc3, 0x6a, 0x3b,
  0xd8, 0x67, 0xd2, 0x3b, 0x4c, 0x88, 0xb3, 0x3b, 0xa1, 0xf5, 0x06, 0x3c,
  0xc4, 0x54, 0xf8, 0x3b, 0xb1, 0x57, 0x99, 0x3b, 0xc9, 0x06, 0xfa, 0x3b,
  0x6b, 0xf4, 0x75, 0x3b, 0xf2, 0x6a, 0x83, 0x3b, 0x2a, 0x86, 0xaa, 0x3b,
  0x2d, 0xe4, 0x52, 0x3b, 0x86, 0x00, 0x96, 0x3b, 0xb0, 0xcd, 0x9d, 0x3b,
  0x1c, 0x00, 0x00, 0x00, 0x73, 0x65, 0x71, 0x75, 0x65, 0x6e, 0x74, 0x69,
  0x61, 0x6c, 0x5f, 0x32, 0x2f, 0x63, 0x6f, 0x6e, 0x76, 0x32, 0x64, 0x5f,
  0x35, 0x2f, 0x43, 0x6f, 0x6e, 0x76, 0x32, 0x44, 0x00, 0x00, 0x00, 0x00,
  0x04, 0x00, 0x00, 0x00, 0x10, 0x00, 0x00, 0x00, 0x04, 0x00, 0x00, 0x00,
  0x01, 0x00, 0x00, 0x00, 0x10, 0x00, 0x00, 0x00, 0xaa, 0xfd, 0xff, 0xff,
  0x14, 0x00, 0x00, 0x00, 0xe4, 0x00, 0x00, 0x00, 0x04, 0x00, 0x00, 0x00,
  0x00, 0x00, 0x00, 0x02, 0x14, 0x01, 0x00, 0x00, 0x24, 0xfd, 0xff, 0xff,
  0x08, 0x00, 0x00, 0x00, 0x88, 0x00, 0x00, 0x00, 0x10, 0x00, 0x00, 0x00,
  0x00, 0x00, 0x00, 0x00, 0x00, 0x00, 0x00, 0x00, 0x00, 0x00, 0x00, 0x00,
  0x00, 0x00, 0x00, 0x00, 0x00, 0x00, 0x00, 0x00, 0x00, 0x00, 0x00, 0x00,
  0x00, 0x00, 0x00, 0x00, 0x00, 0x00, 0x00, 0x00, 0x00, 0x00, 0x00, 0x00,
  0x00, 0x00, 0x00, 0x00, 0x00, 0x00, 0x00, 0x00, 0x00, 0x00, 0x00, 0x00,
  0x00, 0x00, 0x00, 0x00, 0x00, 0x00, 0x00, 0x00, 0x00, 0x00, 0x00, 0x00,
  0x00, 0x00, 0x00, 0x00, 0x00, 0x00, 0x00, 0x00, 0x00, 0x00, 0x00, 0x00,
  0x00, 0x00, 0x00, 0x00, 0x00, 0x00, 0x00, 0x00, 0x00, 0x00, 0x00, 0x00,
  0x00, 0x00, 0x00, 0x00, 0x00, 0x00, 0x00, 0x00, 0x00, 0x00, 0x00, 0x00,
  0x00, 0x00, 0x00, 0x00, 0x00, 0x00, 0x00, 0x00, 0x00, 0x00, 0x00, 0x00,
  0x00, 0x00, 0x00, 0x00, 0x00, 0x00, 0x00, 0x00, 0x00, 0x00, 0x00, 0x00,
  0x00, 0x00, 0x00, 0x00, 0x00, 0x00, 0x00, 0x00, 0x10, 0x00, 0x00, 0x00,
  0xfe, 0x76, 0x3b, 0x3c, 0xf3, 0xc9, 0x2e, 0x3c, 0x84, 0x0e, 0x37, 0x3c,
  0x2f, 0x99, 0x28, 0x3c, 0x1c, 0xae, 0x10, 0x3c, 0xbf, 0x92, 0xdb, 0x3b,
  0x7a, 0x68, 0xfe, 0x3b, 0xbc, 0x54, 0x17, 0x3c, 0x8d, 0x36, 0xce, 0x3b,
  0xe9, 0xf6, 0xf2, 0x3b, 0xb4, 0x08, 0x08, 0x3c, 0x60, 0xbf, 0xaa, 0x3c,
  0x46, 0x0c, 0x32, 0x3c, 0x51, 0x4a, 0x35, 0x3c, 0x9d, 0x79, 0xf4, 0x3b,
  0xf6, 0x1b, 0xa4, 0x3c, 0x35, 0x00, 0x00, 0x00, 0x73, 0x65, 0x71, 0x75,
  0x65, 0x6e, 0x74, 0x69, 0x61, 0x6c, 0x5f, 0x32, 0x2f, 0x63, 0x6f, 0x6e,
  0x76, 0x32, 0x64, 0x5f, 0x34, 0x2f, 0x42, 0x69, 0x61, 0x73, 0x41, 0x64,
  0x64, 0x2f, 0x52, 0x65, 0x61, 0x64, 0x56, 0x61, 0x72, 0x69, 0x61, 0x62,
  0x6c, 0x65, 0x4f, 0x70, 0x2f, 0x72, 0x65, 0x73, 0x6f, 0x75, 0x72, 0x63,
  0x65, 0x00, 0x00, 0x00, 0x01, 0x00, 0x00, 0x00, 0x10, 0x00, 0x00, 0x00,
  0xda, 0xfe, 0xff, 0xff, 0x14, 0x00, 0x00, 0x00, 0xe4, 0x00, 0x00, 0x00,
  0x03, 0x00, 0x00, 0x00, 0x00, 0x00, 0x00, 0x09, 0xfc, 0x00, 0x00, 0x00,
  0x54, 0xfe, 0xff, 0xff, 0x08, 0x00, 0x00, 0x00, 0x88, 0x00, 0x00, 0x00,
  0x10, 0x00, 0x00, 0x00, 0x00, 0x00, 0x00, 0x00, 0x00, 0x00, 0x00, 0x00,
  0x00, 0x00, 0x00, 0x00, 0x00, 0x00, 0x00, 0x00, 0x00, 0x00, 0x00, 0x00,
  0x00, 0x00, 0x00, 0x00, 0x00, 0x00, 0x00, 0x00, 0x00, 0x00, 0x00, 0x00,
  0x00, 0x00, 0x00, 0x00, 0x00, 0x00, 0x00, 0x00, 0x00, 0x00, 0x00, 0x00,
  0x00, 0x00, 0x00, 0x00, 0x00, 0x00, 0x00, 0x00, 0x00, 0x00, 0x00, 0x00,
  0x00, 0x00, 0x00, 0x00, 0x00, 0x00, 0x00, 0x00, 0x00, 0x00, 0x00, 0x00,
  0x00, 0x00, 0x00, 0x00, 0x00, 0x00, 0x00, 0x00, 0x00, 0x00, 0x00, 0x00,
  0x00, 0x00, 0x00, 0x00, 0x00, 0x00, 0x00, 0x00, 0x00, 0x00, 0x00, 0x00,
  0x00, 0x00, 0x00, 0x00, 0x00, 0x00, 0x00, 0x00, 0x00, 0x00, 0x00, 0x00,
  0x00, 0x00, 0x00, 0x00, 0x00, 0x00, 0x00, 0x00, 0x00, 0x00, 0x00, 0x00,
  0x00, 0x00, 0x00, 0x00, 0x00, 0x00, 0x00, 0x00, 0x00, 0x00, 0x00, 0x00,
  0x10, 0x00, 0x00, 0x00, 0xa8, 0x51, 0x43, 0x3b, 0xa8, 0x1c, 0x36, 0x3b,
  0xe7, 0xb9, 0x3e, 0x3b, 0x7f, 0xa9, 0x2f, 0x3b, 0xe3, 0xbd, 0x16, 0x3b,
  0xcb, 0xc5, 0xe4, 0x3a, 0x93, 0x88, 0x04, 0x3b, 0xd8, 0xab, 0x1d, 0x3b,
  0x4d, 0xda, 0xd6, 0x3a, 0xd7, 0x24, 0xfd, 0x3a, 0xbe, 0xbb, 0x0d, 0x3b,
  0xbd, 0xe6, 0xb1, 0x3b, 0xf0, 0x81, 0x39, 0x3b, 0xc2, 0xe2, 0x3c, 0x3b,
  0xbf, 0xb7, 0xfe, 0x3a, 0x20, 0xfc, 0xaa, 0x3b, 0x1c, 0x00, 0x00, 0x00,
  0x73, 0x65, 0x71, 0x75, 0x65, 0x6e, 0x74, 0x69, 0x61, 0x6c, 0x5f, 0x32,
  0x2f, 0x63, 0x6f, 0x6e, 0x76, 0x32, 0x64, 0x5f, 0x34, 0x2f, 0x43, 0x6f,
  0x6e, 0x76, 0x32, 0x44, 0x00, 0x00, 0x00, 0x00, 0x04, 0x00, 0x00, 0x00,
  0x10, 0x00, 0x00, 0x00, 0x04, 0x00, 0x00, 0x00, 0x03, 0x00, 0x00, 0x00,
  0x01, 0x00, 0x00, 0x00, 0x00, 0x00, 0x0e, 0x00, 0x18, 0x00, 0x14, 0x00,
  0x13, 0x00, 0x0c, 0x00, 0x08, 0x00, 0x04, 0x00, 0x0e, 0x00, 0x00, 0x00,
  0x18, 0x00, 0x00, 0x00, 0x18, 0x00, 0x00, 0x00, 0x02, 0x00, 0x00, 0x00,
  0x00, 0x00, 0x00, 0x02, 0x30, 0x00, 0x00, 0x00, 0x04, 0x00, 0x04, 0x00,
  0x04, 0x00, 0x00, 0x00, 0x1c, 0x00, 0x00, 0x00, 0x73, 0x65, 0x71, 0x75,
  0x65, 0x6e, 0x74, 0x69, 0x61, 0x6c, 0x5f, 0x32, 0x2f, 0x66, 0x6c, 0x61,
  0x74, 0x74, 0x65, 0x6e, 0x5f, 0x32, 0x2f, 0x43, 0x6f, 0x6e, 0x73, 0x74,
  0x00, 0x00, 0x00, 0x00, 0x01, 0x00, 0x00, 0x00, 0x02, 0x00, 0x00, 0x00,
  0x14, 0x00, 0x1c, 0x00, 0x18, 0x00, 0x17, 0x00, 0x10, 0x00, 0x0c, 0x00,
  0x08, 0x00, 0x00, 0x00, 0x00, 0x00, 0x04, 0x00, 0x14, 0x00, 0x00, 0x00,
  0x18, 0x00, 0x00, 0x00, 0x34, 0x00, 0x00, 0x00, 0x54, 0x00, 0x00, 0x00,
  0x01, 0x00, 0x00, 0x00, 0x00, 0x00, 0x00, 0x09, 0x5c, 0x00, 0x00, 0x00,
  0x04, 0x00, 0x00, 0x00, 0xff, 0xff, 0xff, 0xff, 0x14, 0x00, 0x00, 0x00,
  0x06, 0x00, 0x00, 0x00, 0x01, 0x00, 0x00, 0x00, 0x0c, 0x00, 0x0c, 0x00,
  0x00, 0x00, 0x00, 0x00, 0x08, 0x00, 0x04, 0x00, 0x0c, 0x00, 0x00, 0x00,
  0x08, 0x00, 0x00, 0x00, 0x14, 0x00, 0x00, 0x00, 0x01, 0x00, 0x00, 0x00,
  0xa6, 0xff, 0xff, 0xff, 0xff, 0xff, 0xff, 0xff, 0x00, 0x00, 0x00, 0x00,
  0x01, 0x00, 0x00, 0x00, 0xab, 0xb4, 0x75, 0x40, 0x0e, 0x00, 0x00, 0x00,
  0x63, 0x6f, 0x6e, 0x76, 0x32, 0x64, 0x5f, 0x34, 0x5f, 0x69, 0x6e, 0x70,
  0x75, 0x74, 0x00, 0x00, 0x04, 0x00, 0x00, 0x00, 0x01, 0x00, 0x00, 0x00,
  0x14, 0x00, 0x00, 0x00, 0x06, 0x00, 0x00, 0x00, 0x01, 0x00, 0x00, 0x00,
  0x05, 0x00, 0x00, 0x00, 0x68, 0x00, 0x00, 0x00, 0x48, 0x00, 0x00, 0x00,
  0x38, 0x00, 0x00, 0x00, 0x18, 0x00, 0x00, 0x00, 0x04, 0x00, 0x00, 0x00,
  0xb8, 0xff, 0xff, 0xff, 0x19, 0x00, 0x00, 0x00, 0x02, 0x00, 0x00, 0x00,
  0x00, 0x00, 0x00, 0x19, 0xc8, 0xff, 0xff, 0xff, 0x09, 0x00, 0x00, 0x00,
  0x04, 0x00, 0x00, 0x00, 0x00, 0x00, 0x00, 0x09, 0x0c, 0x00, 0x0c, 0x00,
  0x0b, 0x00, 0x00, 0x00, 0x00, 0x00, 0x04, 0x00, 0x0c, 0x00, 0x00, 0x00,
  0x16, 0x00, 0x00, 0x00, 0x00, 0x00, 0x00, 0x16, 0xf0, 0xff, 0xff, 0xff,
  0x11, 0x00, 0x00, 0x00, 0x02, 0x00, 0x00, 0x00, 0x00, 0x00, 0x00, 0x11,
  0x0c, 0x00, 0x10, 0x00, 0x0f, 0x00, 0x00, 0x00, 0x08, 0x00, 0x04, 0x00,
  0x0c, 0x00, 0x00, 0x00, 0x03, 0x00, 0x00, 0x00, 0x03, 0x00, 0x00, 0x00,
  0x00, 0x00, 0x00, 0x03
};
unsigned int g_model_len = 7144;
